{
  "version": "1.0",
  "truncation": null,
  "padding": null,
  "added_tokens": [
    {
      "id": 0,
      "content": "[PAD]",
      "single_word": false,
      "lstrip": false,
      "rstrip": false,
      "normalized": false,
      "special": true
    },
    {
      "id": 1,
      "content": "[UNK]",
      "single_word": false,
      "lstrip": false,
      "rstrip": false,
      "normalized": false,
      "special": true
    }
  ],
  "normalizer": {
    "type": "Sequence",
    "normalizers": [
      {
        "type": "Lowercase"
      },
      {
        "type": "StripAccents"
      }
    ]
  },
  "pre_tokenizer": {
    "type": "Whitespace"
  },
  "post_processor": null,
  "decoder": null,
  "model": {
    "type": "WordPiece",
    "unk_token": "[UNK]",
    "continuing_subword_prefix": "##",
    "max_input_chars_per_word": 100,
    "vocab": {
      "[PAD]": 0,
      "[UNK]": 1,
      "!": 2,
      "\"": 3,
      "#": 4,
      "$": 5,
      "&": 6,
      "'": 7,
      "(": 8,
      ")": 9,
      "*": 10,
      "+": 11,
      ",": 12,
      "-": 13,
      ".": 14,
      "/": 15,
      "0": 16,
      "1": 17,
      "2": 18,
      "3": 19,
      "4": 20,
      "5": 21,
      "6": 22,
      "7": 23,
      "8": 24,
      "9": 25,
      ":": 26,
      ";": 27,
      "=": 28,
      ">": 29,
      "?": 30,
      "@": 31,
      "[": 32,
      "\\": 33,
      "]": 34,
      "_": 35,
      "`": 36,
      "a": 37,
      "b": 38,
      "c": 39,
      "d": 40,
      "e": 41,
      "f": 42,
      "g": 43,
      "h": 44,
      "i": 45,
      "j": 46,
      "k": 47,
      "l": 48,
      "m": 49,
      "n": 50,
      "o": 51,
      "p": 52,
      "q": 53,
      "r": 54,
      "s": 55,
      "t": 56,
      "u": 57,
      "v": 58,
      "w": 59,
      "x": 60,
      "y": 61,
      "z": 62,
      "¤": 63,
      "¿": 64,
      "â": 65,
      "ç": 66,
      "é": 67,
      "ð": 68,
      "ó": 69,
      "ö": 70,
      "û": 71,
      "ü": 72,
      "ý": 73,
      "þ": 74,
      "đ": 75,
      "ğ": 76,
      "ģ": 77,
      "ı": 78,
      "ş": 79,
      "ţ": 80,
      "ż": 81,
      "ž": 82,
      "​": 83,
      "ナ": 84,
      "底": 85,
      "각": 86,
      "계": 87,
      "는": 88,
      "니": 89,
      "다": 90,
      "상": 91,
      "서": 92,
      "시": 93,
      "어": 94,
      "에": 95,
      "오": 96,
      "쥐": 97,
      "팬": 98,
      "합": 99,
      "##i": 100,
      "##n": 101,
      "##l": 102,
      "##y": 103,
      "##o": 104,
      "##r": 105,
      "##a": 106,
      "##e": 107,
      "##g": 108,
      "##t": 109,
      "##m": 110,
      "##ı": 111,
      "##d": 112,
      "##k": 113,
      "##c": 114,
      "##ş": 115,
      "##s": 116,
      "##ü": 117,
      "##v": 118,
      "##z": 119,
      "##ç": 120,
      "##ğ": 121,
      "##p": 122,
      "##f": 123,
      "##u": 124,
      "##h": 125,
      "##b": 126,
      "##ö": 127,
      "##j": 128,
      "##ý": 129,
      "##w": 130,
      "##4": 131,
      "##x": 132,
      "##3": 133,
      "##9": 134,
      "##0": 135,
      "##8": 136,
      "##5": 137,
      "##.": 138,
      "##\"": 139,
      "##1": 140,
      "##â": 141,
      "##2": 142,
      "##ż": 143,
      "##`": 144,
      "##,": 145,
      "##7": 146,
      "##q": 147,
      "##6": 148,
      "##​": 149,
      "##ģ": 150,
      "##þ": 151,
      "##'": 152,
      "##đ": 153,
      "##각": 154,
      "##쥐": 155,
      "##)": 156,
      "##?": 157,
      "##]": 158,
      "###": 159,
      "##다": 160,
      "##ţ": 161,
      "##>": 162,
      "##상": 163,
      "##û": 164,
      "##ナ": 165,
      "##어": 166,
      "##ð": 167,
      "##ž": 168,
      "##_": 169,
      "##는": 170,
      "##서": 171,
      "##+": 172,
      "##é": 173,
      "##계": 174,
      "##ó": 175,
      "##/": 176,
      "##니": 177,
      "##ir": 178,
      "bir": 179,
      "##an": 180,
      "##ar": 181,
      "##da": 182,
      "##ın": 183,
      "##in": 184,
      "##er": 185,
      "##en": 186,
      "##ak": 187,
      "##yo": 188,
      "##ur": 189,
      "##de": 190,
      "ka": 191,
      "##yor": 192,
      "##le": 193,
      "##lar": 194,
      "##ında": 195,
      "##as": 196,
      "ve": 197,
      "##un": 198,
      "##ek": 199,
      "##ki": 200,
      "##la": 201,
      "##il": 202,
      "##ya": 203,
      "ot": 204,
      "##lan": 205,
      "##ta": 206,
      "##lı": 207,
      "##ler": 208,
      "##ır": 209,
      "##inde": 210,
      "##li": 211,
      "##iş": 212,
      "ada": 213,
      "adam": 214,
      "##ün": 215,
      "##is": 216,
      "otur": 217,
      "##ra": 218,
      "##uyor": 219,
      "##ük": 220,
      "##ay": 221,
      "be": 222,
      "##ol": 223,
      "ya": 224,
      "yan": 225,
      "##ut": 226,
      "dur": 227,
      "##ah": 228,
      "##zer": 229,
      "üzer": 230,
      "##es": 231,
      "##et": 232,
      "##ul": 233,
      "##em": 234,
      "iki": 235,
      "##ür": 236,
      "##ok": 237,
      "##ma": 238,
      "##av": 239,
      "##st": 240,
      "##iz": 241,
      "##ik": 242,
      "in": 243,
      "gö": 244,
      "oy": 245,
      "##az": 246,
      "kad": 247,
      "yanında": 248,
      "##cu": 249,
      "##iy": 250,
      "iç": 251,
      "üzerinde": 252,
      "##ka": 253,
      "##on": 254,
      "çi": 255,
      "##ünde": 256,
      "te": 257,
      "kadın": 258,
      "mas": 259,
      "##yaz": 260,
      "beyaz": 261,
      "kiş": 262,
      "##ağ": 263,
      "kay": 264,
      "kü": 265,
      "##üy": 266,
      "##let": 267,
      "##ıyor": 268,
      "uç": 269,
      "##ız": 270,
      "##at": 271,
      "##ab": 272,
      "##ark": 273,
      "##ru": 274,
      "kişi": 275,
      "##ey": 276,
      "##raf": 277,
      "oturan": 278,
      "##ış": 279,
      "##di": 280,
      "ile": 281,
      "##al": 282,
      "##ık": 283,
      "##san": 284,
      "##akta": 285,
      "küç": 286,
      "küçük": 287,
      "insan": 288,
      "bul": 289,
      "##ör": 290,
      "büy": 291,
      "##ası": 292,
      "ay": 293,
      "büyük": 294,
      "##anın": 295,
      "tut": 296,
      "bin": 297,
      "duran": 298,
      "##asında": 299,
      "olan": 300,
      "##to": 301,
      "##eş": 302,
      "kar": 303,
      "bulun": 304,
      "##ine": 305,
      "##üs": 306,
      "##uş": 307,
      "at": 308,
      "oyun": 309,
      "##iyor": 310,
      "gru": 311,
      "yak": 312,
      "ço": 313,
      "masa": 314,
      "kö": 315,
      "var": 316,
      "oturuyor": 317,
      "grup": 318,
      "##te": 319,
      "##op": 320,
      "yap": 321,
      "çocu": 322,
      "park": 323,
      "##uv": 324,
      "sok": 325,
      "##üz": 326,
      "ar": 327,
      "duruyor": 328,
      "##oto": 329,
      "##ları": 330,
      "ten": 331,
      "tab": 332,
      "##or": 333,
      "bulunan": 334,
      "##ların": 335,
      "köp": 336,
      "##ap": 337,
      "ön": 338,
      "##arı": 339,
      "##it": 340,
      "tr": 341,
      "üst": 342,
      "ke": 343,
      "si": 344,
      "##am": 345,
      "çocuk": 346,
      "ban": 347,
      "##iklet": 348,
      "##iye": 349,
      "##miş": 350,
      "##bol": 351,
      "oda": 352,
      "##den": 353,
      "##eren": 354,
      "tenis": 355,
      "##oy": 356,
      "##ob": 357,
      "##yah": 358,
      "alan": 359,
      "##aş": 360,
      "##lu": 361,
      "yakın": 362,
      "tren": 363,
      "##im": 364,
      "sah": 365,
      "##dır": 366,
      "ara": 367,
      "siyah": 368,
      "##ken": 369,
      "gen": 370,
      "kır": 371,
      "##um": 372,
      "##ğa": 373,
      "kap": 374,
      "##dan": 375,
      "##ına": 376,
      "##ürü": 377,
      "##kaç": 378,
      "iş": 379,
      "birkaç": 380,
      "kayk": 381,
      "##yon": 382,
      "kaykay": 383,
      "su": 384,
      "##alı": 385,
      "yol": 386,
      "hav": 387,
      "##yan": 388,
      "sa": 389,
      "yat": 390,
      "##azı": 391,
      "kedi": 392,
      "##ızı": 393,
      "bazı": 394,
      "##el": 395,
      "oyn": 396,
      "##sı": 397,
      "##ep": 398,
      "##inin": 399,
      "kırm": 400,
      "kırmızı": 401,
      "tah": 402,
      "top": 403,
      "önünde": 404,
      "##leri": 405,
      "bey": 406,
      "bil": 407,
      "##gis": 408,
      "köpek": 409,
      "##uz": 410,
      "dol": 411,
      "bilgis": 412,
      "bilgisay": 413,
      "san": 414,
      "yem": 415,
      "tutan": 416,
      "##ının": 417,
      "beyz": 418,
      "el": 419,
      "##eb": 420,
      "beyzbol": 421,
      "bilgisayar": 422,
      "genç": 423,
      "do": 424,
      "çim": 425,
      "bak": 426,
      "##aret": 427,
      "tar": 428,
      "otob": 429,
      "işaret": 430,
      "banyo": 431,
      "##ım": 432,
      "al": 433,
      "##örf": 434,
      "uz": 435,
      "gör": 436,
      "kayak": 437,
      "sörf": 438,
      "##du": 439,
      "##ede": 440,
      "tele": 441,
      "ağa": 442,
      "mut": 443,
      "otobüs": 444,
      "insanlar": 445,
      "üstünde": 446,
      "ge": 447,
      "mav": 448,
      "##lü": 449,
      "piz": 450,
      "res": 451,
      "##af": 452,
      "pizz": 453,
      "mavi": 454,
      "##lik": 455,
      "##mış": 456,
      "için": 457,
      "##lerin": 458,
      "mutf": 459,
      "##eşil": 460,
      "##eh": 461,
      "arab": 462,
      "diz": 463,
      "##ev": 464,
      "moto": 465,
      "kız": 466,
      "aç": 467,
      "hava": 468,
      "et": 469,
      "pizza": 470,
      "içinde": 471,
      "##cak": 472,
      "##unda": 473,
      "uçur": 474,
      "alt": 475,
      "zü": 476,
      "##uva": 477,
      "züraf": 478,
      "tuva": 479,
      "tuvalet": 480,
      "##su": 481,
      "##ayan": 482,
      "##zg": 483,
      "üzerine": 484,
      "yeşil": 485,
      "ed": 486,
      "taht": 487,
      "kam": 488,
      "##ağı": 489,
      "fil": 490,
      "zürafa": 491,
      "er": 492,
      "##larla": 493,
      "tek": 494,
      "üç": 495,
      "##len": 496,
      "ah": 497,
      "##üst": 498,
      "masada": 499,
      "kah": 500,
      "kahv": 501,
      "çok": 502,
      "görün": 503,
      "saat": 504,
      "yer": 505,
      "yemek": 506,
      "tezg": 507,
      "##fon": 508,
      "##siklet": 509,
      "##ga": 510,
      "##eğ": 511,
      "tezgah": 512,
      "erk": 513,
      "motosiklet": 514,
      "##ğı": 515,
      "edil": 516,
      "##ad": 517,
      "tep": 518,
      "ahş": 519,
      "##oyun": 520,
      "ahşap": 521,
      "dolu": 522,
      "ayı": 523,
      "##ehir": 524,
      "açık": 525,
      "yür": 526,
      "telefon": 527,
      "yakınında": 528,
      "giy": 529,
      "##ft": 530,
      "ağaç": 531,
      "##ını": 532,
      "par": 533,
      "or": 534,
      "##esi": 535,
      "##ems": 536,
      "##üstü": 537,
      "##bi": 538,
      "baş": 539,
      "kul": 540,
      "şems": 541,
      "sürü": 542,
      "erkek": 543,
      "##cı": 544,
      "##dal": 545,
      "çift": 546,
      "##eler": 547,
      "##tı": 548,
      "##lak": 549,
      "##gi": 550,
      "##daki": 551,
      "##ip": 552,
      "##tma": 553,
      "bu": 554,
      "dış": 555,
      "zeb": 556,
      "##tan": 557,
      "oyuncu": 558,
      "sarı": 559,
      "dizüstü": 560,
      "fır": 561,
      "##uvar": 562,
      "##kli": 563,
      "uçak": 564,
      "##yla": 565,
      "##cek": 566,
      "bis": 567,
      "##enc": 568,
      "fr": 569,
      "lav": 570,
      "foto": 571,
      "sokak": 572,
      "fotoğ": 573,
      "tak": 574,
      "fotoğraf": 575,
      "haz": 576,
      "lavab": 577,
      "bisiklet": 578,
      "##ini": 579,
      "hazır": 580,
      "geç": 581,
      "altında": 582,
      "##eli": 583,
      "##likte": 584,
      "zebra": 585,
      "mutfak": 586,
      "arka": 587,
      "##esinde": 588,
      "##ort": 589,
      "şehir": 590,
      "tabak": 591,
      "kal": 592,
      "##si": 593,
      "alanda": 594,
      "kut": 595,
      "ark": 596,
      "cad": 597,
      "##lab": 598,
      "kan": 599,
      "kuş": 600,
      "penc": 601,
      "kahveren": 602,
      "##dı": 603,
      "##ley": 604,
      "gü": 605,
      "kahverengi": 606,
      "çek": 607,
      "gün": 608,
      "birlikte": 609,
      "##eye": 610,
      "yanındaki": 611,
      "masanın": 612,
      "şemsiye": 613,
      "tekn": 614,
      "duvar": 615,
      "so": 616,
      "kamyon": 617,
      "sür": 618,
      "##aket": 619,
      "##mek": 620,
      "##üş": 621,
      "uçurtma": 622,
      "##iğ": 623,
      "ok": 624,
      "ren": 625,
      "dal": 626,
      "pas": 627,
      "##van": 628,
      "araba": 629,
      "ken": 630,
      "kutu": 631,
      "##layan": 632,
      "lavabo": 633,
      "uzun": 634,
      "##ran": 635,
      "##iç": 636,
      "##ğu": 637,
      "yatak": 638,
      "##dir": 639,
      "##me": 640,
      "çeş": 641,
      "kon": 642,
      "kullan": 643,
      "bina": 644,
      "iz": 645,
      "sandal": 646,
      "kum": 647,
      "oyuncusu": 648,
      "sandaly": 649,
      "oynuyor": 650,
      "po": 651,
      "##ından": 652,
      "kas": 653,
      "##bir": 654,
      "hay": 655,
      "es": 656,
      "##ıl": 657,
      "##mak": 658,
      "sokakta": 659,
      "çimen": 660,
      "ku": 661,
      "##lık": 662,
      "bo": 663,
      "yiye": 664,
      "##üsü": 665,
      "##yüz": 666,
      "gök": 667,
      "sır": 668,
      "raket": 669,
      "sand": 670,
      "taraf": 671,
      "oturma": 672,
      "yiyecek": 673,
      "arkasında": 674,
      "##us": 675,
      "birbir": 676,
      "oyuncak": 677,
      "##tir": 678,
      "taş": 679,
      "sahip": 680,
      "##viç": 681,
      "çeşit": 682,
      "##çek": 683,
      "sandviç": 684,
      "ol": 685,
      "eski": 686,
      "binen": 687,
      "##ca": 688,
      "pencer": 689,
      "çalı": 690,
      "cadde": 691,
      "hayvan": 692,
      "gökyüz": 693,
      "##ilde": 694,
      "yapıyor": 695,
      "pis": 696,
      "göst": 697,
      "cep": 698,
      "kaldır": 699,
      "kanep": 700,
      "odası": 701,
      "##ti": 702,
      "##laş": 703,
      "##dur": 704,
      "##uk": 705,
      "kı": 706,
      "sal": 707,
      "muz": 708,
      "##ça": 709,
      "işareti": 710,
      "ev": 711,
      "binanın": 712,
      "yürü": 713,
      "tutuyor": 714,
      "ayn": 715,
      "oynayan": 716,
      "plan": 717,
      "çiçek": 718,
      "##enin": 719,
      "##maya": 720,
      "tarla": 721,
      "##eri": 722,
      "içeren": 723,
      "##sında": 724,
      "##lerle": 725,
      "doğ": 726,
      "##ağın": 727,
      "uçan": 728,
      "ış": 729,
      "edilmiş": 730,
      "##do": 731,
      "##be": 732,
      "kes": 733,
      "friz": 734,
      "##bo": 735,
      "ek": 736,
      "inek": 737,
      "yapan": 738,
      "aş": 739,
      "##çı": 740,
      "##lıyor": 741,
      "renkli": 742,
      "frizbi": 743,
      "bakan": 744,
      "##ard": 745,
      "diğ": 746,
      "koyun": 747,
      "birç": 748,
      "çık": 749,
      "kaldırım": 750,
      "##asına": 751,
      "mey": 752,
      "çit": 753,
      "kaplı": 754,
      "yüz": 755,
      "birçok": 756,
      "##ayı": 757,
      "##ro": 758,
      "resm": 759,
      "##muş": 760,
      "kat": 761,
      "vaz": 762,
      "yürüy": 763,
      "ko": 764,
      "##ce": 765,
      "##man": 766,
      "##gın": 767,
      "##lek": 768,
      "##arda": 769,
      "seb": 770,
      "buz": 771,
      "sebz": 772,
      "havada": 773,
      "gi": 774,
      "##unun": 775,
      "ser": 776,
      "çalış": 777,
      "vazo": 778,
      "resim": 779,
      "beb": 780,
      "kenar": 781,
      "yangın": 782,
      "##ön": 783,
      "dışarı": 784,
      "tabakta": 785,
      "traf": 786,
      "ba": 787,
      "okyan": 788,
      "sahilde": 789,
      "kir": 790,
      "mak": 791,
      "pist": 792,
      "diğer": 793,
      "dalga": 794,
      "görünt": 795,
      "##arken": 796,
      "çeşitli": 797,
      "aşağı": 798,
      "##larda": 799,
      "##leyen": 800,
      "##ow": 801,
      "tur": 802,
      "yürür": 803,
      "planda": 804,
      "##üm": 805,
      "göm": 806,
      "meyv": 807,
      "##board": 808,
      "sos": 809,
      "##ada": 810,
      "boyun": 811,
      "ist": 812,
      "trafik": 813,
      "sn": 814,
      "##ört": 815,
      "snow": 816,
      "##üne": 817,
      "göz": 818,
      "##larında": 819,
      "##liyor": 820,
      "##ic": 821,
      "oturur": 822,
      "##ğun": 823,
      "göster": 824,
      "##tır": 825,
      "fotoğrafı": 826,
      "kenarında": 827,
      "##isi": 828,
      "tarlada": 829,
      "boyunca": 830,
      "bakıyor": 831,
      "##tal": 832,
      "##lara": 833,
      "snowboard": 834,
      "okyanus": 835,
      "##ığ": 836,
      "plak": 837,
      "çev": 838,
      "hazırlan": 839,
      "##asyon": 840,
      "dil": 841,
      "giyen": 842,
      "kek": 843,
      "##ilmiş": 844,
      "resmi": 845,
      "##ri": 846,
      "boy": 847,
      "fark": 848,
      "tahtası": 849,
      "çan": 850,
      "takım": 851,
      "ayakta": 852,
      "kol": 853,
      "##yı": 854,
      "##ilir": 855,
      "yürüyor": 856,
      "buzdo": 857,
      "farklı": 858,
      "yiyor": 859,
      "yata": 860,
      "kaya": 861,
      "buzdolab": 862,
      "kra": 863,
      "tahta": 864,
      "an": 865,
      "##eği": 866,
      "etraf": 867,
      "yürüyen": 868,
      "ki": 869,
      "br": 870,
      "##aki": 871,
      "yar": 872,
      "bebek": 873,
      "çevr": 874,
      "barda": 875,
      "##tasında": 876,
      "##vat": 877,
      "dilim": 878,
      "##ağında": 879,
      "kule": 880,
      "kravat": 881,
      "##bis": 882,
      "elbis": 883,
      "topu": 884,
      "yük": 885,
      "ver": 886,
      "##lüm": 887,
      "meyve": 888,
      "pla": 889,
      "poz": 890,
      "etrafında": 891,
      "on": 892,
      "başka": 893,
      "tahtasında": 894,
      "pencere": 895,
      "##ili": 896,
      "##çi": 897,
      "düz": 898,
      "sop": 899,
      "##ılmış": 900,
      "kayakçı": 901,
      "şap": 902,
      "tekne": 903,
      "diş": 904,
      "##ten": 905,
      "konuş": 906,
      "##aya": 907,
      "eğ": 908,
      "istasyon": 909,
      "odasında": 910,
      "parça": 911,
      "doğru": 912,
      "##iler": 913,
      "##rak": 914,
      "##oko": 915,
      "karlı": 916,
      "telefonu": 917,
      "vur": 918,
      "dört": 919,
      "kita": 920,
      "çimlerin": 921,
      "zem": 922,
      "##ide": 923,
      "##una": 924,
      "gökyüzünde": 925,
      "adamın": 926,
      "##ulmuş": 927,
      "kort": 928,
      "ortasında": 929,
      "cam": 930,
      "##iyle": 931,
      "##gaj": 932,
      "bagaj": 933,
      "güneş": 934,
      "##akal": 935,
      "as": 936,
      "yiy": 937,
      "çör": 938,
      "bek": 939,
      "pasta": 940,
      "gülüm": 941,
      "banyoda": 942,
      "gülüms": 943,
      "##eket": 944,
      "##inden": 945,
      "yolda": 946,
      "##cın": 947,
      "bank": 948,
      "tarafından": 949,
      "dağ": 950,
      "mer": 951,
      "yaka": 952,
      "port": 953,
      "çö": 954,
      "ışık": 955,
      "gibi": 956,
      "##asının": 957,
      "kapı": 958,
      "##arak": 959,
      "boş": 960,
      "##ara": 961,
      "##ması": 962,
      "ası": 963,
      "##amb": 964,
      "broko": 965,
      "brokoli": 966,
      "##lav": 967,
      "hi": 968,
      "##viz": 969,
      "bah": 970,
      "suy": 971,
      "suda": 972,
      "şar": 973,
      "##lanmış": 974,
      "taşı": 975,
      "##leş": 976,
      "##larını": 977,
      "elinde": 978,
      "çörek": 979,
      "gri": 980,
      "yatıyor": 981,
      "##aktadır": 982,
      "##tr": 983,
      "##anda": 984,
      "##uç": 985,
      "##lem": 986,
      "sosis": 987,
      "##vizyon": 988,
      "##ast": 989,
      "televizyon": 990,
      "dem": 991,
      "kitap": 992,
      "yaş": 993,
      "den": 994,
      "güz": 995,
      "güzel": 996,
      "##ilen": 997,
      "wi": 998,
      "kaykaycı": 999,
      "##lenmiş": 1000,
      "##inc": 1001,
      "bardak": 1002,
      "odada": 1003,
      "##sal": 1004,
      "pem": 1005,
      "bit": 1006,
      "##üyor": 1007,
      "##şı": 1008,
      "##tes": 1009,
      "dışarıda": 1010,
      "pembe": 1011,
      "wii": 1012,
      "##if": 1013,
      "portakal": 1014,
      "man": 1015,
      "şarap": 1016,
      "##diyor": 1017,
      "yürürken": 1018,
      "bahç": 1019,
      "şey": 1020,
      "kalab": 1021,
      "##alık": 1022,
      "yolcu": 1023,
      "raf": 1024,
      "##vet": 1025,
      "##duğu": 1026,
      "yo": 1027,
      "uzak": 1028,
      "kur": 1029,
      "köş": 1030,
      "bayan": 1031,
      "yiyen": 1032,
      "katlı": 1033,
      "ör": 1034,
      "turun": 1035,
      "da": 1036,
      "şapka": 1037,
      "##müş": 1038,
      "mik": 1039,
      "doldur": 1040,
      "asılı": 1041,
      "turuncu": 1042,
      "##ye": 1043,
      "fut": 1044,
      "##uğ": 1045,
      "don": 1046,
      "şiş": 1047,
      "##lekli": 1048,
      "##eğin": 1049,
      "##asını": 1050,
      "lev": 1051,
      "geniş": 1052,
      "futbol": 1053,
      "dö": 1054,
      "koy": 1055,
      "##unu": 1056,
      "çimenli": 1057,
      "şek": 1058,
      "kortunda": 1059,
      "kamer": 1060,
      "sörfç": 1061,
      "kullanan": 1062,
      "##lerini": 1063,
      "##lata": 1064,
      "karla": 1065,
      "levh": 1066,
      "klav": 1067,
      "süs": 1068,
      "##taki": 1069,
      "orman": 1070,
      "##erken": 1071,
      "##lanan": 1072,
      "me": 1073,
      "görünüm": 1074,
      "yüks": 1075,
      "##obil": 1076,
      "##eyn": 1077,
      "mon": 1078,
      "kağı": 1079,
      "uy": 1080,
      "karşı": 1081,
      "tepesinde": 1082,
      "##kin": 1083,
      "otobüsü": 1084,
      "sebze": 1085,
      "mo": 1086,
      "##tası": 1087,
      "yama": 1088,
      "kaldırımda": 1089,
      "ça": 1090,
      "dolaş": 1091,
      "oyunu": 1092,
      "raketi": 1093,
      "arasında": 1094,
      "görüntüsü": 1095,
      "kutup": 1096,
      "ağaçların": 1097,
      "küvet": 1098,
      "mutfakta": 1099,
      "lamb": 1100,
      "çitin": 1101,
      "kadin": 1102,
      "sürüsü": 1103,
      "vide": 1104,
      "sörfçü": 1105,
      "ağ": 1106,
      "eş": 1107,
      "video": 1108,
      "buzdolabı": 1109,
      "hazırlanıyor": 1110,
      "ayna": 1111,
      "plaka": 1112,
      "ma": 1113,
      "göl": 1114,
      "kulesi": 1115,
      "bağ": 1116,
      "##amp": 1117,
      "yanına": 1118,
      "yatan": 1119,
      "kab": 1120,
      "fırın": 1121,
      "yet": 1122,
      "eden": 1123,
      "##ıç": 1124,
      "##ven": 1125,
      "etti": 1126,
      "##maktadır": 1127,
      "##lap": 1128,
      "##lük": 1129,
      "dışında": 1130,
      "kolt": 1131,
      "yağ": 1132,
      "peyn": 1133,
      "biri": 1134,
      "peynir": 1135,
      "##urken": 1136,
      "sosisli": 1137,
      "##ığı": 1138,
      "plaj": 1139,
      "suyun": 1140,
      "bat": 1141,
      "##alan": 1142,
      "parkta": 1143,
      "öğ": 1144,
      "tav": 1145,
      "dolap": 1146,
      "##lerine": 1147,
      "topa": 1148,
      "taşıyan": 1149,
      "bulut": 1150,
      "##lo": 1151,
      "ak": 1152,
      "ayak": 1153,
      "doldurulmuş": 1154,
      "har": 1155,
      "##ağa": 1156,
      "de": 1157,
      "yakala": 1158,
      "yetiş": 1159,
      "jet": 1160,
      "kaf": 1161,
      "ekran": 1162,
      "##çası": 1163,
      "çevrili": 1164,
      "##ez": 1165,
      "bankta": 1166,
      "günde": 1167,
      "piş": 1168,
      "mah": 1169,
      "yarı": 1170,
      "##larının": 1171,
      "tuğ": 1172,
      "zebralar": 1173,
      "tuğla": 1174,
      "dir": 1175,
      "son": 1176,
      "tem": 1177,
      "kanepe": 1178,
      "yaz": 1179,
      "elma": 1180,
      "yere": 1181,
      "##asa": 1182,
      "yolun": 1183,
      "##lerde": 1184,
      "gece": 1185,
      "uzan": 1186,
      "inen": 1187,
      "##diven": 1188,
      "tenisçi": 1189,
      "ramp": 1190,
      "havaalan": 1191,
      "##lama": 1192,
      "biniyor": 1193,
      "##leştir": 1194,
      "kanepede": 1195,
      "sürüyor": 1196,
      "yana": 1197,
      "kumsal": 1198,
      "elbiseli": 1199,
      "yerde": 1200,
      "tv": 1201,
      "zemin": 1202,
      "kav": 1203,
      "duş": 1204,
      "çalışan": 1205,
      "metal": 1206,
      "uçuyor": 1207,
      "finc": 1208,
      "yatakta": 1209,
      "##mekte": 1210,
      "##ğın": 1211,
      "demir": 1212,
      "vardır": 1213,
      "##eden": 1214,
      "##iliyor": 1215,
      "oturuyordu": 1216,
      "gömlek": 1217,
      "kalabalık": 1218,
      "sokağında": 1219,
      "resto": 1220,
      "yığ": 1221,
      "yaşlı": 1222,
      "havuç": 1223,
      "kadının": 1224,
      "sandalye": 1225,
      "üstüne": 1226,
      "##der": 1227,
      "##lardı": 1228,
      "gömlekli": 1229,
      "yetişkin": 1230,
      "mikro": 1231,
      "pat": 1232,
      "##eyen": 1233,
      "alanında": 1234,
      "ediyor": 1235,
      "oluş": 1236,
      "alanı": 1237,
      "uzaktan": 1238,
      "kişinin": 1239,
      "fincan": 1240,
      "çiz": 1241,
      "ağacın": 1242,
      "mu": 1243,
      "##meye": 1244,
      "birbirine": 1245,
      "##kem": 1246,
      "##avul": 1247,
      "yüksek": 1248,
      "##erek": 1249,
      "hid": 1250,
      "tahtasına": 1251,
      "bitki": 1252,
      "fris": 1253,
      "bıç": 1254,
      "ceket": 1255,
      "per": 1256,
      "hidran": 1257,
      "bavul": 1258,
      "gir": 1259,
      "arabanın": 1260,
      "mahkem": 1261,
      "sırt": 1262,
      "yakınındaki": 1263,
      "üzerindeki": 1264,
      "sırasında": 1265,
      "görüntü": 1266,
      "küt": 1267,
      "kumanda": 1268,
      "##ılı": 1269,
      "kase": 1270,
      "yarasa": 1271,
      "geçen": 1272,
      "bulunur": 1273,
      "her": 1274,
      "tutar": 1275,
      "kıs": 1276,
      "dağın": 1277,
      "masaya": 1278,
      "nehir": 1279,
      "okyanusta": 1280,
      "boylu": 1281,
      "pa": 1282,
      "döş": 1283,
      "##itör": 1284,
      "monitör": 1285,
      "birbirlerine": 1286,
      "gözlük": 1287,
      "dön": 1288,
      "frisbe": 1289,
      "bö": 1290,
      "##leyic": 1291,
      "ağz": 1292,
      "di": 1293,
      "##larak": 1294,
      "giymiş": 1295,
      "yerleştir": 1296,
      "yen": 1297,
      "uçağı": 1298,
      "restoran": 1299,
      "##rin": 1300,
      "otlayan": 1301,
      "kağıt": 1302,
      "sebzeler": 1303,
      "dah": 1304,
      "##tf": 1305,
      "çar": 1306,
      "##ile": 1307,
      "##cü": 1308,
      "##fet": 1309,
      "tezgahta": 1310,
      "saç": 1311,
      "şemsiy": 1312,
      "##öm": 1313,
      "##larıyla": 1314,
      "masasında": 1315,
      "gümüş": 1316,
      "hey": 1317,
      "temiz": 1318,
      "mobil": 1319,
      "##yafet": 1320,
      "kızar": 1321,
      "kavş": 1322,
      "ün": 1323,
      "orta": 1324,
      "makas": 1325,
      "kahve": 1326,
      "atın": 1327,
      "num": 1328,
      "yas": 1329,
      "heyk": 1330,
      "bilgisayarın": 1331,
      "##atı": 1332,
      "köpr": 1333,
      "##larına": 1334,
      "sokağın": 1335,
      "süren": 1336,
      "##indeki": 1337,
      "üzere": 1338,
      "mikrodal": 1339,
      "kullanıyor": 1340,
      "yoğun": 1341,
      "##ayla": 1342,
      "sü": 1343,
      "##mur": 1344,
      "##elen": 1345,
      "parlak": 1346,
      "saya": 1347,
      "frisbee": 1348,
      "##ünün": 1349,
      "şişe": 1350,
      "kıyafet": 1351,
      "dev": 1352,
      "çeken": 1353,
      "caddede": 1354,
      "izler": 1355,
      "tan": 1356,
      "##bu": 1357,
      "araç": 1358,
      "bıçak": 1359,
      "olarak": 1360,
      "bulutlu": 1361,
      "manz": 1362,
      "hayvanat": 1363,
      "##ge": 1364,
      "ıs": 1365,
      "bulunduğu": 1366,
      "altındaki": 1367,
      "gösteren": 1368,
      "çocuklar": 1369,
      "poli": 1370,
      "koş": 1371,
      "yağmur": 1372,
      "edilen": 1373,
      "ört": 1374,
      "is": 1375,
      "##yolu": 1376,
      "geçiyor": 1377,
      "ışığı": 1378,
      "mobilya": 1379,
      "##üğ": 1380,
      "ağaçlar": 1381,
      "##ot": 1382,
      "pata": 1383,
      "yön": 1384,
      "patates": 1385,
      "far": 1386,
      "yal": 1387,
      "##orma": 1388,
      "sev": 1389,
      "çanta": 1390,
      "biraz": 1391,
      "yaprak": 1392,
      "çarp": 1393,
      "insanlarla": 1394,
      "fırça": 1395,
      "sandalyede": 1396,
      "##esinin": 1397,
      "onun": 1398,
      "oğ": 1399,
      "##lmış": 1400,
      "alanın": 1401,
      "sahada": 1402,
      "elek": 1403,
      "hal": 1404,
      "çik": 1405,
      "oto": 1406,
      "izliyor": 1407,
      "levhası": 1408,
      "ünif": 1409,
      "çıkar": 1410,
      "bi": 1411,
      "çiko": 1412,
      "numara": 1413,
      "çikolata": 1414,
      "elektr": 1415,
      "renk": 1416,
      "dek": 1417,
      "çekiyor": 1418,
      "yatağa": 1419,
      "##denin": 1420,
      "klavye": 1421,
      "sey": 1422,
      "##uslu": 1423,
      "muh": 1424,
      "mor": 1425,
      "kapalı": 1426,
      "duvara": 1427,
      "önündeki": 1428,
      "polis": 1429,
      "##erenin": 1430,
      "sep": 1431,
      "##ing": 1432,
      "atlar": 1433,
      "mikrodalga": 1434,
      "ben": 1435,
      "##anlık": 1436,
      "##lanır": 1437,
      "oluşan": 1438,
      "dik": 1439,
      "pan": 1440,
      "yarış": 1441,
      "arabası": 1442,
      "ekmek": 1443,
      "yaln": 1444,
      "##up": 1445,
      "görünümü": 1446,
      "##bı": 1447,
      "caddenin": 1448,
      "##re": 1449,
      "##ıda": 1450,
      "sayı": 1451,
      "yalnız": 1452,
      "##mektedir": 1453,
      "üzerinden": 1454,
      "serg": 1455,
      "iler": 1456,
      "sığ": 1457,
      "##aman": 1458,
      "gez": 1459,
      "otururken": 1460,
      "veriyor": 1461,
      "muslu": 1462,
      "motor": 1463,
      "çalışıyor": 1464,
      "çiçekler": 1465,
      "veren": 1466,
      "##eyi": 1467,
      "kumsalda": 1468,
      "evin": 1469,
      "##astik": 1470,
      "battan": 1471,
      "bas": 1472,
      "mahkemede": 1473,
      "sepet": 1474,
      "sön": 1475,
      "çatal": 1476,
      "karanlık": 1477,
      "tablo": 1478,
      "diki": 1479,
      "##dın": 1480,
      "dizi": 1481,
      "tarafında": 1482,
      "##onun": 1483,
      "##ucu": 1484,
      "##ül": 1485,
      "bakar": 1486,
      "lim": 1487,
      "giyiyor": 1488,
      "hareket": 1489,
      "##tar": 1490,
      "birbirinin": 1491,
      "şeyler": 1492,
      "pencerenin": 1493,
      "av": 1494,
      "kıyı": 1495,
      "oynam": 1496,
      "##yi": 1497,
      "alı": 1498,
      "##deki": 1499,
      "masası": 1500,
      "birisi": 1501,
      "##imli": 1502,
      "ormanda": 1503,
      "koltuk": 1504,
      "ter": 1505,
      "##cer": 1506,
      "düş": 1507,
      "parkında": 1508,
      "kütle": 1509,
      "nin": 1510,
      "gıda": 1511,
      "##ef": 1512,
      "##ecek": 1513,
      "bes": 1514,
      "filin": 1515,
      "tezgahın": 1516,
      "edilir": 1517,
      "atıyor": 1518,
      "##ba": 1519,
      "içine": 1520,
      "##mayı": 1521,
      "köşesinde": 1522,
      "alet": 1523,
      "donut": 1524,
      "oğlan": 1525,
      "manzar": 1526,
      "en": 1527,
      "dük": 1528,
      "sönd": 1529,
      "##astık": 1530,
      "dükk": 1531,
      "pl": 1532,
      "atan": 1533,
      "üniforma": 1534,
      "iniyor": 1535,
      "##ği": 1536,
      "yastık": 1537,
      "sı": 1538,
      "gökyüzü": 1539,
      "bay": 1540,
      "sav": 1541,
      "##yeşil": 1542,
      "yemyeşil": 1543,
      "ray": 1544,
      "uçuruyor": 1545,
      "ayakka": 1546,
      "aydın": 1547,
      "şeh": 1548,
      "tepeden": 1549,
      "mum": 1550,
      "##ver": 1551,
      "doğum": 1552,
      "pistte": 1553,
      "eşya": 1554,
      "##lg": 1555,
      "sopası": 1556,
      "met": 1557,
      "sp": 1558,
      "sahn": 1559,
      "kask": 1560,
      "oturuyorlar": 1561,
      "grubu": 1562,
      "paten": 1563,
      "dururken": 1564,
      "çocuğun": 1565,
      "konuşuyor": 1566,
      "tat": 1567,
      "pişir": 1568,
      "fırçası": 1569,
      "st": 1570,
      "##imi": 1571,
      "arkada": 1572,
      "##esine": 1573,
      "tencer": 1574,
      "sandalyeler": 1575,
      "sak": 1576,
      "lamba": 1577,
      "altına": 1578,
      "sıra": 1579,
      "yav": 1580,
      "muhaf": 1581,
      "doludur": 1582,
      "bahçesinde": 1583,
      "verir": 1584,
      "güneşli": 1585,
      "##eme": 1586,
      "ayakkabı": 1587,
      "##ildi": 1588,
      "##yol": 1589,
      "merdiven": 1590,
      "trenin": 1591,
      "kamera": 1592,
      "üstü": 1593,
      "günü": 1594,
      "yel": 1595,
      "tekneler": 1596,
      "makin": 1597,
      "##orm": 1598,
      "fare": 1599,
      "sayıda": 1600,
      "yum": 1601,
      "##ari": 1602,
      "##lardan": 1603,
      "muhafaz": 1604,
      "tepede": 1605,
      "ye": 1606,
      "klavy": 1607,
      "plastik": 1608,
      "to": 1609,
      "bekleyen": 1610,
      "gülümseyen": 1611,
      "salata": 1612,
      "elbise": 1613,
      "yuk": 1614,
      "##leme": 1615,
      "ask": 1616,
      "##lat": 1617,
      "salın": 1618,
      "daha": 1619,
      "##sinin": 1620,
      "yatağın": 1621,
      "mar": 1622,
      "mağ": 1623,
      "##lenir": 1624,
      "sergilen": 1625,
      "kısm": 1626,
      "havlu": 1627,
      "paz": 1628,
      "denet": 1629,
      "boya": 1630,
      "##ırken": 1631,
      "edildi": 1632,
      "##ıp": 1633,
      "##mates": 1634,
      "domates": 1635,
      "köprü": 1636,
      "sallanan": 1637,
      "demiryolu": 1638,
      "hile": 1639,
      "kil": 1640,
      "kadar": 1641,
      "yolunda": 1642,
      "içecek": 1643,
      "kameraya": 1644,
      "##ana": 1645,
      "kor": 1646,
      "atış": 1647,
      "of": 1648,
      "pro": 1649,
      "sar": 1650,
      "süslü": 1651,
      "kalem": 1652,
      "##tur": 1653,
      "mağaz": 1654,
      "##siz": 1655,
      "sob": 1656,
      "içki": 1657,
      "##amur": 1658,
      "çöp": 1659,
      "ata": 1660,
      "şekilde": 1661,
      "erkekler": 1662,
      "##ğında": 1663,
      "filler": 1664,
      "yapılmış": 1665,
      "dalg": 1666,
      "yığın": 1667,
      "duvarda": 1668,
      "platf": 1669,
      "battaniye": 1670,
      "konuşan": 1671,
      "şapkalı": 1672,
      "tas": 1673,
      "##şık": 1674,
      "uçuran": 1675,
      "mal": 1676,
      "##elik": 1677,
      "ked": 1678,
      "bur": 1679,
      "içindeki": 1680,
      "##yıcı": 1681,
      "##sının": 1682,
      "denetleyic": 1683,
      "şöm": 1684,
      "direk": 1685,
      "##ılan": 1686,
      "kara": 1687,
      "se": 1688,
      "mutfaktaki": 1689,
      "ocak": 1690,
      "kayalık": 1691,
      "tatlı": 1692,
      "##ileri": 1693,
      "##lerinde": 1694,
      "oynuyorlar": 1695,
      "tepsi": 1696,
      "köpeği": 1697,
      "kamyonun": 1698,
      "##ans": 1699,
      "##emiş": 1700,
      "sığır": 1701,
      "kayaklar": 1702,
      "##landı": 1703,
      "asf": 1704,
      "gösterilir": 1705,
      "uzanan": 1706,
      "birinin": 1707,
      "##vde": 1708,
      "gövde": 1709,
      "içer": 1710,
      "##ımı": 1711,
      "##inç": 1712,
      "##lam": 1713,
      "##alt": 1714,
      "serv": 1715,
      "##mesi": 1716,
      "##hi": 1717,
      "restoranda": 1718,
      "##tek": 1719,
      "##iği": 1720,
      "yelken": 1721,
      "##ber": 1722,
      "hidrant": 1723,
      "çay": 1724,
      "##lerinin": 1725,
      "beş": 1726,
      "kaykayla": 1727,
      "bisikletle": 1728,
      "##ci": 1729,
      "kr": 1730,
      "duvarın": 1731,
      "çiçeklerle": 1732,
      "pistinde": 1733,
      "pastası": 1734,
      "dişlerini": 1735,
      "##kez": 1736,
      "##eğe": 1737,
      "izleyen": 1738,
      "platform": 1739,
      "atlayan": 1740,
      "sahasında": 1741,
      "görünüyor": 1742,
      "merkez": 1743,
      "##ne": 1744,
      "kirli": 1745,
      "##id": 1746,
      "arkasındaki": 1747,
      "bar": 1748,
      "din": 1749,
      "bulunmaktadır": 1750,
      "##asından": 1751,
      "zürafalar": 1752,
      "yavru": 1753,
      "salon": 1754,
      "düzen": 1755,
      "iyi": 1756,
      "havaya": 1757,
      "ağaçlarla": 1758,
      "##ranın": 1759,
      "yürüyüş": 1760,
      "masadaki": 1761,
      "yansı": 1762,
      "treni": 1763,
      "servis": 1764,
      "gözlü": 1765,
      "çantası": 1766,
      "##ton": 1767,
      "boyn": 1768,
      "karın": 1769,
      "soğ": 1770,
      "deniz": 1771,
      "çocuğu": 1772,
      "parçası": 1773,
      "##aze": 1774,
      "teps": 1775,
      "topuna": 1776,
      "şehrin": 1777,
      "kür": 1778,
      "##şi": 1779,
      "##ürücü": 1780,
      "##danın": 1781,
      "yola": 1782,
      "otom": 1783,
      "taze": 1784,
      "istasyonunda": 1785,
      "##azla": 1786,
      "yaklaş": 1787,
      "##uyan": 1788,
      "oyununda": 1789,
      "vazoda": 1790,
      "perde": 1791,
      "der": 1792,
      "söndürücü": 1793,
      "tün": 1794,
      "uçurtmalar": 1795,
      "üniformalı": 1796,
      "oturmuş": 1797,
      "çıkan": 1798,
      "karış": 1799,
      "saati": 1800,
      "ofis": 1801,
      "##uğu": 1802,
      "maç": 1803,
      "otomobil": 1804,
      "sat": 1805,
      "ta": 1806,
      "duruyorlar": 1807,
      "musluğu": 1808,
      "ür": 1809,
      "ninten": 1810,
      "gem": 1811,
      "yarım": 1812,
      "nintendo": 1813,
      "moder": 1814,
      "halı": 1815,
      "yerinde": 1816,
      "modern": 1817,
      "aile": 1818,
      "##met": 1819,
      "graf": 1820,
      "yuvar": 1821,
      "bekliyor": 1822,
      "hak": 1823,
      "ayısı": 1824,
      "##manın": 1825,
      "atlıyor": 1826,
      "stan": 1827,
      "##eti": 1828,
      "kontr": 1829,
      "fazla": 1830,
      "##ke": 1831,
      "##lay": 1832,
      "tel": 1833,
      "tutarken": 1834,
      "##ülü": 1835,
      "yapar": 1836,
      "otel": 1837,
      "##tif": 1838,
      "dekor": 1839,
      "malz": 1840,
      "##ağının": 1841,
      "donuts": 1842,
      "##ındaki": 1843,
      "arkasına": 1844,
      "dolaşıyor": 1845,
      "yemeği": 1846,
      "sık": 1847,
      "karda": 1848,
      "suya": 1849,
      "tavuk": 1850,
      "##na": 1851,
      "biner": 1852,
      "yamacın": 1853,
      "yatıyordu": 1854,
      "##umda": 1855,
      "eldiven": 1856,
      "işaretinin": 1857,
      "telefonuyla": 1858,
      "##teki": 1859,
      "önüne": 1860,
      "dolaşan": 1861,
      "kontrol": 1862,
      "kaplıdır": 1863,
      "kayağı": 1864,
      "otop": 1865,
      "içiyor": 1866,
      "insanların": 1867,
      "süslenmiş": 1868,
      "##eyle": 1869,
      "tezgahı": 1870,
      "motosikletin": 1871,
      "soba": 1872,
      "uçurt": 1873,
      "şehirde": 1874,
      "gülümser": 1875,
      "yukarı": 1876,
      "##leriyle": 1877,
      "##tik": 1878,
      "dolma": 1879,
      "telefonunda": 1880,
      "şömine": 1881,
      "asfalt": 1882,
      "bakarken": 1883,
      "past": 1884,
      "##uluk": 1885,
      "çikolatalı": 1886,
      "görünümlü": 1887,
      "yaya": 1888,
      "yumur": 1889,
      "gel": 1890,
      "geçit": 1891,
      "aşağıya": 1892,
      "caddeden": 1893,
      "yumurta": 1894,
      "##ünü": 1895,
      "vah": 1896,
      "vurmaya": 1897,
      "lambası": 1898,
      "arabalar": 1899,
      "kalabalı": 1900,
      "##ih": 1901,
      "çimenlerin": 1902,
      "##ici": 1903,
      "teker": 1904,
      "takan": 1905,
      "otopark": 1906,
      "sahiptir": 1907,
      "sin": 1908,
      "lavabonun": 1909,
      "çizg": 1910,
      "izlerken": 1911,
      "havaalanı": 1912,
      "teknede": 1913,
      "çıkıyor": 1914,
      "vahşi": 1915,
      "yamaç": 1916,
      "##zet": 1917,
      "no": 1918,
      "yaparken": 1919,
      "##altı": 1920,
      "va": 1921,
      "oturup": 1922,
      "durdu": 1923,
      "kamyonu": 1924,
      "atı": 1925,
      "tane": 1926,
      "ilerliyor": 1927,
      "tabağa": 1928,
      "##ub": 1929,
      "binaların": 1930,
      "karşısında": 1931,
      "heykel": 1932,
      "sıcak": 1933,
      "giyin": 1934,
      "yüzen": 1935,
      "otla": 1936,
      "döşen": 1937,
      "pencereden": 1938,
      "tam": 1939,
      "tuvaletin": 1940,
      "tır": 1941,
      "##itli": 1942,
      "hidrantı": 1943,
      "biber": 1944,
      "##ter": 1945,
      "##lerden": 1946,
      "rampa": 1947,
      "tor": 1948,
      "kaz": 1949,
      "parkur": 1950,
      "başını": 1951,
      "makar": 1952,
      "kuru": 1953,
      "dağınık": 1954,
      "tünemiş": 1955,
      "ger": 1956,
      "yolc": 1957,
      "hat": 1958,
      "##üt": 1959,
      "kuluç": 1960,
      "süresi": 1961,
      "kuluçka": 1962,
      "##onik": 1963,
      "köpeğin": 1964,
      "##liy": 1965,
      "binalar": 1966,
      "alıyor": 1967,
      "pir": 1968,
      "düğ": 1969,
      "kade": 1970,
      "yakalamak": 1971,
      "bölg": 1972,
      "sağ": 1973,
      "çer": 1974,
      "heykeli": 1975,
      "dok": 1976,
      "dalgaya": 1977,
      "bal": 1978,
      "##esini": 1979,
      "kasab": 1980,
      "soğan": 1981,
      "üstündeki": 1982,
      "katta": 1983,
      "gösterir": 1984,
      "havaalanında": 1985,
      "elektronik": 1986,
      "motorlu": 1987,
      "fırında": 1988,
      "geri": 1989,
      "##lenen": 1990,
      "üzerindedir": 1991,
      "buzdolabının": 1992,
      "hız": 1993,
      "##uar": 1994,
      "pişmiş": 1995,
      "balık": 1996,
      "ha": 1997,
      "##tması": 1998,
      "##iti": 1999,
      "kumlu": 2000,
      "yakalayıcı": 2001,
      "yığını": 2002,
      "yeni": 2003,
      "uçurtmayı": 2004,
      "mes": 2005,
      "kesme": 2006,
      "çök": 2007,
      "eğim": 2008,
      "##mayan": 2009,
      "sevimli": 2010,
      "çelik": 2011,
      "##ust": 2012,
      "atlama": 2013,
      "işaretleri": 2014,
      "saman": 2015,
      "tezgahında": 2016,
      "zeminde": 2017,
      "##lendir": 2018,
      "kent": 2019,
      "ağzında": 2020,
      "kesen": 2021,
      "kesilmiş": 2022,
      "##gun": 2023,
      "saatli": 2024,
      "kutusu": 2025,
      "boyalı": 2026,
      "aracı": 2027,
      "##edeki": 2028,
      "saçlı": 2029,
      "veya": 2030,
      "tabağı": 2031,
      "##öy": 2032,
      "##lanma": 2033,
      "kend": 2034,
      "kullanarak": 2035,
      "süra": 2036,
      "savaş": 2037,
      "koyu": 2038,
      "maçı": 2039,
      "telefonda": 2040,
      "okul": 2041,
      "demet": 2042,
      "prof": 2043,
      "kapta": 2044,
      "gidiyor": 2045,
      "metro": 2046,
      "##sunun": 2047,
      "kapının": 2048,
      "hiz": 2049,
      "##oş": 2050,
      "##cının": 2051,
      "##illi": 2052,
      "bağlı": 2053,
      "aydınla": 2054,
      "makarna": 2055,
      "monte": 2056,
      "yok": 2057,
      "sonra": 2058,
      "toprak": 2059,
      "bira": 2060,
      "##ilik": 2061,
      "tepenin": 2062,
      "koyan": 2063,
      "bacak": 2064,
      "okyanusun": 2065,
      "##mer": 2066,
      "aynı": 2067,
      "paket": 2068,
      "olduğu": 2069,
      "##oz": 2070,
      "##ğü": 2071,
      "dolaplar": 2072,
      "cih": 2073,
      "rah": 2074,
      "##lere": 2075,
      "düzlem": 2076,
      "ayr": 2077,
      "kilis": 2078,
      "alanının": 2079,
      "##yonel": 2080,
      "##aları": 2081,
      "taşıyor": 2082,
      "çor": 2083,
      "kov": 2084,
      "makinesi": 2085,
      "sürüş": 2086,
      "spor": 2087,
      "##şam": 2088,
      "sayacı": 2089,
      "profes": 2090,
      "tic": 2091,
      "##lanıyor": 2092,
      "kesiyor": 2093,
      "##elerle": 2094,
      "pirinç": 2095,
      "profesyonel": 2096,
      "yapış": 2097,
      "kızartması": 2098,
      "gezin": 2099,
      "birden": 2100,
      "tiş": 2101,
      "akşam": 2102,
      "##ünden": 2103,
      "sokağı": 2104,
      "gölg": 2105,
      "##ig": 2106,
      "eki": 2107,
      "gözlüklü": 2108,
      "##co": 2109,
      "kaşık": 2110,
      "yüzü": 2111,
      "##isinde": 2112,
      "elini": 2113,
      "şapk": 2114,
      "otlıyor": 2115,
      "sudaki": 2116,
      "otobüst": 2117,
      "resmini": 2118,
      "##larken": 2119,
      "oldu": 2120,
      "hizmet": 2121,
      "eder": 2122,
      "elektrik": 2123,
      "masaüstü": 2124,
      "havuz": 2125,
      "dondur": 2126,
      "tutarak": 2127,
      "çizgili": 2128,
      "rek": 2129,
      "seyir": 2130,
      "hamur": 2131,
      "##esinden": 2132,
      "gösteriyor": 2133,
      "alır": 2134,
      "insanın": 2135,
      "manzarası": 2136,
      "salıncak": 2137,
      "tür": 2138,
      "##ban": 2139,
      "yoldan": 2140,
      "pazar": 2141,
      "##det": 2142,
      "dikilen": 2143,
      "##tol": 2144,
      "##lardaki": 2145,
      "bahçesi": 2146,
      "hakem": 2147,
      "##işik": 2148,
      "kumandalı": 2149,
      "sopayla": 2150,
      "duruyordu": 2151,
      "ad": 2152,
      "kalk": 2153,
      "eğlen": 2154,
      "pantol": 2155,
      "gelen": 2156,
      "yuvarlak": 2157,
      "kadeh": 2158,
      "hayvanlar": 2159,
      "rahat": 2160,
      "mem": 2161,
      "çevresinde": 2162,
      "uyuyor": 2163,
      "##ırak": 2164,
      "kadınlar": 2165,
      "sahnesi": 2166,
      "pantolon": 2167,
      "##yahat": 2168,
      "kulak": 2169,
      "##siyon": 2170,
      "yazı": 2171,
      "seyahat": 2172,
      "##sunda": 2173,
      "mutfağın": 2174,
      "altın": 2175,
      "ticari": 2176,
      "şer": 2177,
      "asya": 2178,
      "zeminli": 2179,
      "bırak": 2180,
      "##sına": 2181,
      "değ": 2182,
      "benz": 2183,
      "ip": 2184,
      "mini": 2185,
      "##ladı": 2186,
      "durur": 2187,
      "noel": 2188,
      "tişört": 2189,
      "odadaki": 2190,
      "plajda": 2191,
      "renkte": 2192,
      "ızg": 2193,
      "şef": 2194,
      "otlak": 2195,
      "teknenin": 2196,
      "##lakta": 2197,
      "odanın": 2198,
      "##inda": 2199,
      "##dek": 2200,
      "gözlüğü": 2201,
      "##diği": 2202,
      "çitlerle": 2203,
      "çarptı": 2204,
      "haf": 2205,
      "otlakta": 2206,
      "gösteriliyor": 2207,
      "dar": 2208,
      "##ıntı": 2209,
      "##uru": 2210,
      "uyuyan": 2211,
      "##tür": 2212,
      "##se": 2213,
      "##pa": 2214,
      "##etir": 2215,
      "dök": 2216,
      "ıslak": 2217,
      "gar": 2218,
      "##çe": 2219,
      "giyinmiş": 2220,
      "vit": 2221,
      "etik": 2222,
      "gökyüzüne": 2223,
      "kavşakta": 2224,
      "raketle": 2225,
      "dayan": 2226,
      "yapmak": 2227,
      "##ork": 2228,
      "odasının": 2229,
      "kom": 2230,
      "izle": 2231,
      "evde": 2232,
      "hafif": 2233,
      "sade": 2234,
      "kahvaltı": 2235,
      "stand": 2236,
      "telefonuna": 2237,
      "##gar": 2238,
      "kirem": 2239,
      "yay": 2240,
      "##eç": 2241,
      "içen": 2242,
      "kırsal": 2243,
      "şort": 2244,
      "##tırma": 2245,
      "yatağında": 2246,
      "adet": 2247,
      "##ket": 2248,
      "topun": 2249,
      "##per": 2250,
      "çimento": 2251,
      "cihaz": 2252,
      "koyuyor": 2253,
      "yaslanmış": 2254,
      "telefonunu": 2255,
      "tahtasıyla": 2256,
      "bayrak": 2257,
      "grafiti": 2258,
      "denetleyicisi": 2259,
      "##ora": 2260,
      "##sel": 2261,
      "bulan": 2262,
      "sıkış": 2263,
      "dizilmiş": 2264,
      "erkeğin": 2265,
      "hazırlanan": 2266,
      "dışındaki": 2267,
      "öğle": 2268,
      "yağmurda": 2269,
      "des": 2270,
      "yığı": 2271,
      "kaplanmış": 2272,
      "kürek": 2273,
      "yi": 2274,
      "##sinde": 2275,
      "nehirde": 2276,
      "arkadaş": 2277,
      "raketini": 2278,
      "şemsiyeli": 2279,
      "ördek": 2280,
      "alış": 2281,
      "##top": 2282,
      "avlu": 2283,
      "okyanusa": 2284,
      "moda": 2285,
      "yaprakları": 2286,
      "otobüste": 2287,
      "##şa": 2288,
      "kayan": 2289,
      "han": 2290,
      "diğeri": 2291,
      "vurmak": 2292,
      "kulü": 2293,
      "yelkenli": 2294,
      "dekore": 2295,
      "geçerken": 2296,
      "askeri": 2297,
      "okyanust": 2298,
      "durma": 2299,
      "dilimlenmiş": 2300,
      "##za": 2301,
      "başına": 2302,
      "malzeme": 2303,
      "alanına": 2304,
      "görünen": 2305,
      "ne": 2306,
      "pen": 2307,
      "##ağına": 2308,
      "##ıyla": 2309,
      "kuşlar": 2310,
      "oynamak": 2311,
      "ayar": 2312,
      "oynarken": 2313,
      "bitişik": 2314,
      "çöm": 2315,
      "##ılır": 2316,
      "##çiler": 2317,
      "##ışın": 2318,
      "kravatlı": 2319,
      "yerleştirilmiş": 2320,
      "çatı": 2321,
      "##tığı": 2322,
      "yürüyorlar": 2323,
      "kavşak": 2324,
      "bulanık": 2325,
      "itf": 2326,
      "röm": 2327,
      "sun": 2328,
      "##tılmış": 2329,
      "dair": 2330,
      "itfa": 2331,
      "durdur": 2332,
      "##luk": 2333,
      "konuşurken": 2334,
      "gülümsey": 2335,
      "suyu": 2336,
      "tekerlekli": 2337,
      "öz": 2338,
      "çiçekli": 2339,
      "çöl": 2340,
      "sopasını": 2341,
      "sürahi": 2342,
      "aya": 2343,
      "adamı": 2344,
      "beton": 2345,
      "kaseye": 2346,
      "inekler": 2347,
      "olmayan": 2348,
      "kısa": 2349,
      "getir": 2350,
      "##ed": 2351,
      "başlayan": 2352,
      "sinya": 2353,
      "topunu": 2354,
      "tencere": 2355,
      "##gan": 2356,
      "görü": 2357,
      "##lanmaz": 2358,
      "dis": 2359,
      "pik": 2360,
      "yemeğ": 2361,
      "gülümseyerek": 2362,
      "otlarla": 2363,
      "bez": 2364,
      "bilgisayarda": 2365,
      "##ıldı": 2366,
      "sandviçi": 2367,
      "gaz": 2368,
      "nes": 2369,
      "görünüş": 2370,
      "güver": 2371,
      "paslanmaz": 2372,
      "çant": 2373,
      "ısır": 2374,
      "ürün": 2375,
      "kamyonet": 2376,
      "müz": 2377,
      "ulaş": 2378,
      "oturuyorlardı": 2379,
      "bazıları": 2380,
      "öğr": 2381,
      "sandalyeye": 2382,
      "##ck": 2383,
      "##go": 2384,
      "##çev": 2385,
      "krem": 2386,
      "çerçev": 2387,
      "meş": 2388,
      "yard": 2389,
      "##ger": 2390,
      "inşa": 2391,
      "televizyonun": 2392,
      "##ulu": 2393,
      "kanepenin": 2394,
      "##undan": 2395,
      "ağzına": 2396,
      "çıp": 2397,
      "binada": 2398,
      "tahtasındaki": 2399,
      "sayaç": 2400,
      "görül": 2401,
      "lez": 2402,
      "tad": 2403,
      "ceketli": 2404,
      "kısmen": 2405,
      "##cağı": 2406,
      "yapı": 2407,
      "zürafanın": 2408,
      "çayır": 2409,
      "römork": 2410,
      "blen": 2411,
      "gül": 2412,
      "yüzey": 2413,
      "anne": 2414,
      "##lenmiştir": 2415,
      "im": 2416,
      "meyveler": 2417,
      "eng": 2418,
      "ekip": 2419,
      "çıplak": 2420,
      "yolu": 2421,
      "##ğunu": 2422,
      "##veriş": 2423,
      "memuru": 2424,
      "kumda": 2425,
      "monitörü": 2426,
      "örtüsü": 2427,
      "reklam": 2428,
      "has": 2429,
      "şekl": 2430,
      "uzanıyor": 2431,
      "tırman": 2432,
      "##dy": 2433,
      "adamla": 2434,
      "kağıdı": 2435,
      "satı": 2436,
      "##tü": 2437,
      "##liz": 2438,
      "pencereli": 2439,
      "atmaya": 2440,
      "aynaya": 2441,
      "şemsiyenin": 2442,
      "etiket": 2443,
      "pi": 2444,
      "kayakta": 2445,
      "yazan": 2446,
      "iske": 2447,
      "zaman": 2448,
      "##aklı": 2449,
      "köşede": 2450,
      "muhafaza": 2451,
      "kasede": 2452,
      "oyunları": 2453,
      "tuvalette": 2454,
      "saatin": 2455,
      "##eliyor": 2456,
      "sadece": 2457,
      "trene": 2458,
      "kütlesinin": 2459,
      "alışveriş": 2460,
      "##ğına": 2461,
      "kuc": 2462,
      "olmak": 2463,
      "##ist": 2464,
      "##ika": 2465,
      "atar": 2466,
      "oynamaktadır": 2467,
      "hidrantının": 2468,
      "nok": 2469,
      "pal": 2470,
      "##ıllı": 2471,
      "yürümeye": 2472,
      "sebzelerle": 2473,
      "rüz": 2474,
      "##ğinde": 2475,
      "itfaiye": 2476,
      "sahil": 2477,
      "bisikletin": 2478,
      "tahtaları": 2479,
      "gölde": 2480,
      "dokun": 2481,
      "dep": 2482,
      "##dü": 2483,
      "atla": 2484,
      "kayaklarda": 2485,
      "ışıkları": 2486,
      "çorba": 2487,
      "kutupta": 2488,
      "dahil": 2489,
      "lezzet": 2490,
      "##anı": 2491,
      "takıyor": 2492,
      "hazırlayan": 2493,
      "düğün": 2494,
      "hem": 2495,
      "durumda": 2496,
      "önce": 2497,
      "sopa": 2498,
      "okyanustaki": 2499,
      "git": 2500,
      "##leniyor": 2501,
      "raketiyle": 2502,
      "pervan": 2503,
      "##dür": 2504,
      "sab": 2505,
      "##ina": 2506,
      "bilgisayarı": 2507,
      "dışarıdaki": 2508,
      "görüntülenir": 2509,
      "yaşam": 2510,
      "uçağın": 2511,
      "tahtasını": 2512,
      "edilmiştir": 2513,
      "##har": 2514,
      "hileler": 2515,
      "keçi": 2516,
      "sürerken": 2517,
      "##lüyor": 2518,
      "uçaklar": 2519,
      "dalganın": 2520,
      "oyna": 2521,
      "kıv": 2522,
      "şeker": 2523,
      "çadır": 2524,
      "##nik": 2525,
      "bekler": 2526,
      "otoparkta": 2527,
      "tüy": 2528,
      "ekranda": 2529,
      "sco": 2530,
      "##mam": 2531,
      "sebzeli": 2532,
      "ilerleyen": 2533,
      "tüm": 2534,
      "tarafta": 2535,
      "antik": 2536,
      "fayan": 2537,
      "istasyonu": 2538,
      "yardım": 2539,
      "fayans": 2540,
      "istasyonda": 2541,
      "seyr": 2542,
      "otobüsün": 2543,
      "vurucu": 2544,
      "miktar": 2545,
      "kıyısında": 2546,
      "##gul": 2547,
      "##muz": 2548,
      "pastayı": 2549,
      "##enli": 2550,
      "tuvalete": 2551,
      "geçer": 2552,
      "fırçalayan": 2553,
      "halinde": 2554,
      "scoot": 2555,
      "kok": 2556,
      "lavabosu": 2557,
      "scooter": 2558,
      "toplandı": 2559,
      "kapısı": 2560,
      "kaykayını": 2561,
      "çıkarıyor": 2562,
      "saksı": 2563,
      "sergilenen": 2564,
      "##gün": 2565,
      "araya": 2566,
      "motoru": 2567,
      "kork": 2568,
      "sol": 2569,
      "parç": 2570,
      "yarısı": 2571,
      "yerleştirilir": 2572,
      "kafes": 2573,
      "giriş": 2574,
      "kedinin": 2575,
      "bel": 2576,
      "atlara": 2577,
      "bebeğin": 2578,
      "depo": 2579,
      "##yaj": 2580,
      "kost": 2581,
      "makyaj": 2582,
      "levhaları": 2583,
      "mağaza": 2584,
      "##ela": 2585,
      "##han": 2586,
      "çekimi": 2587,
      "ekranın": 2588,
      "takımı": 2589,
      "dönüş": 2590,
      "kalabalığın": 2591,
      "min": 2592,
      "seh": 2593,
      "ışığ": 2594,
      "ona": 2595,
      "geceleri": 2596,
      "##maş": 2597,
      "banliy": 2598,
      "##leb": 2599,
      "bulaş": 2600,
      "##üğü": 2601,
      "kostüm": 2602,
      "banliyö": 2603,
      "gemi": 2604,
      "dum": 2605,
      "##cında": 2606,
      "rafta": 2607,
      "mode": 2608,
      "ortam": 2609,
      "mek": 2610,
      "alanındaki": 2611,
      "hoş": 2612,
      "kulüb": 2613,
      "kuz": 2614,
      "##sine": 2615,
      "sanat": 2616,
      "bahçede": 2617,
      "tavan": 2618,
      "lezzetli": 2619,
      "söy": 2620,
      "yaban": 2621,
      "araz": 2622,
      "toplanır": 2623,
      "işaretler": 2624,
      "koltuğ": 2625,
      "yavrusu": 2626,
      "piknik": 2627,
      "rüzgar": 2628,
      "##kuş": 2629,
      "##tıcı": 2630,
      "valiz": 2631,
      "##mat": 2632,
      "üstte": 2633,
      "çilek": 2634,
      "kıyafetler": 2635,
      "kiremitli": 2636,
      "akıllı": 2637,
      "neh": 2638,
      "alana": 2639,
      "kapat": 2640,
      "ağacı": 2641,
      "dekora": 2642,
      "altı": 2643,
      "snowboardcu": 2644,
      "stok": 2645,
      "ilg": 2646,
      "zinc": 2647,
      "zincir": 2648,
      "##gu": 2649,
      "yakalayan": 2650,
      "yolculuk": 2651,
      "cip": 2652,
      "pek": 2653,
      "sıç": 2654,
      "yor": 2655,
      "##lır": 2656,
      "##lığı": 2657,
      "arıyor": 2658,
      "insanlara": 2659,
      "##mo": 2660,
      "yiyecekler": 2661,
      "hün": 2662,
      "##malı": 2663,
      "odaya": 2664,
      "gerçek": 2665,
      "..": 2666,
      "rul": 2667,
      "sokağa": 2668,
      "ayılar": 2669,
      "boru": 2670,
      "malzemeleri": 2671,
      "dav": 2672,
      "ro": 2673,
      "masasının": 2674,
      "olgun": 2675,
      "kaldırımdaki": 2676,
      "dişli": 2677,
      "çökmüş": 2678,
      "hüner": 2679,
      "kem": 2680,
      "çamur": 2681,
      "buhar": 2682,
      "çeşitleri": 2683,
      "otlatma": 2684,
      "iken": 2685,
      "##akt": 2686,
      "kare": 2687,
      "dışına": 2688,
      "süt": 2689,
      "otoyol": 2690,
      "kütlesi": 2691,
      "şeri": 2692,
      "kardaki": 2693,
      "yeşillik": 2694,
      "ahır": 2695,
      "yataklı": 2696,
      "soy": 2697,
      "##par": 2698,
      "tarz": 2699,
      "sandalyenin": 2700,
      "sarışın": 2701,
      "şeklinde": 2702,
      "##üc": 2703,
      "trenle": 2704,
      "bilgisayarla": 2705,
      "mesaf": 2706,
      "yığılmış": 2707,
      "meşgul": 2708,
      "sakal": 2709,
      "##ıt": 2710,
      "##dra": 2711,
      "dilimleri": 2712,
      "oynamaya": 2713,
      "##ışı": 2714,
      "##araj": 2715,
      "##lör": 2716,
      "yapmaya": 2717,
      "sallayan": 2718,
      "aynanın": 2719,
      "kenarındaki": 2720,
      "mantar": 2721,
      "fırının": 2722,
      "lavaboya": 2723,
      "bron": 2724,
      "maçında": 2725,
      "yatılı": 2726,
      "binaya": 2727,
      "pastanın": 2728,
      "iskele": 2729,
      "fas": 2730,
      "öğe": 2731,
      "bıçakla": 2732,
      "deri": 2733,
      "mad": 2734,
      "##şu": 2735,
      "iniş": 2736,
      "##ruk": 2737,
      "çocuğa": 2738,
      "fırç": 2739,
      "pisuar": 2740,
      "tamam": 2741,
      "rulo": 2742,
      "kalan": 2743,
      "durağında": 2744,
      "binic": 2745,
      "snowboardç": 2746,
      "sil": 2747,
      "frans": 2748,
      "bakıyordu": 2749,
      "gülümsüyor": 2750,
      "tost": 2751,
      "ber": 2752,
      "kuy": 2753,
      "ışıklı": 2754,
      "yık": 2755,
      "##larından": 2756,
      "kaldırımın": 2757,
      "parçaları": 2758,
      "garaj": 2759,
      "##üf": 2760,
      "disk": 2761,
      "bronz": 2762,
      "##lemektedir": 2763,
      "##ırlar": 2764,
      "geçir": 2765,
      "kendi": 2766,
      "düzgün": 2767,
      "##min": 2768,
      "hazırlıyor": 2769,
      "sallıyor": 2770,
      "##efen": 2771,
      "pap": 2772,
      "##asındaki": 2773,
      "başında": 2774,
      "ekipman": 2775,
      "##üp": 2776,
      "kaykaylı": 2777,
      "kilise": 2778,
      "minib": 2779,
      "kuzu": 2780,
      "kro": 2781,
      "kişilik": 2782,
      "doğa": 2783,
      "çalışma": 2784,
      "torb": 2785,
      "adım": 2786,
      "duman": 2787,
      "##sız": 2788,
      "yapımı": 2789,
      "işaretin": 2790,
      "kızın": 2791,
      "kurut": 2792,
      "demiryol": 2793,
      "can": 2794,
      "mutlu": 2795,
      "engel": 2796,
      "seti": 2797,
      "​​": 2798,
      "##acak": 2799,
      "##ch": 2800,
      "takılı": 2801,
      "karıştır": 2802,
      "elektrikli": 2803,
      "''": 2804,
      "uzat": 2805,
      "havali": 2806,
      "##ılmıştır": 2807,
      "taşıma": 2808,
      "yanından": 2809,
      "karo": 2810,
      "kırık": 2811,
      "döşeme": 2812,
      "##ılıyor": 2813,
      "sokaktan": 2814,
      "raketleri": 2815,
      "ekranı": 2816,
      "şerit": 2817,
      "madde": 2818,
      "fransız": 2819,
      "uzakta": 2820,
      "giden": 2821,
      "ket": 2822,
      "tu": 2823,
      "##tu": 2824,
      "tabl": 2825,
      "dolab": 2826,
      "motosiklette": 2827,
      "##dığı": 2828,
      "çekme": 2829,
      "vazolar": 2830,
      "diğerleri": 2831,
      "##ülüyor": 2832,
      "bulaşık": 2833,
      "dekoratif": 2834,
      "un": 2835,
      "##sa": 2836,
      "##ht": 2837,
      "fili": 2838,
      "oc": 2839,
      "##yken": 2840,
      "##lantı": 2841,
      "taban": 2842,
      "##maşık": 2843,
      "karlarla": 2844,
      "arabayı": 2845,
      "boğa": 2846,
      "yüzeye": 2847,
      "benzer": 2848,
      "pilav": 2849,
      "fı": 2850,
      "muzlar": 2851,
      "onu": 2852,
      "ormanlık": 2853,
      "görülür": 2854,
      "içi": 2855,
      "çimenlerde": 2856,
      "koyunlar": 2857,
      "küvetli": 2858,
      "aydınlatılmış": 2859,
      "sakallı": 2860,
      "fasul": 2861,
      "##tin": 2862,
      "yakınlarında": 2863,
      "işleri": 2864,
      "giys": 2865,
      "tahtalarında": 2866,
      "futbolcu": 2867,
      "döşenmiş": 2868,
      "blender": 2869,
      "hep": 2870,
      "##ğını": 2871,
      "oyuncuları": 2872,
      "turşu": 2873,
      "plakanın": 2874,
      "co": 2875,
      "deli": 2876,
      "şir": 2877,
      "bayra": 2878,
      "görünüşü": 2879,
      "kızarmış": 2880,
      "kucağında": 2881,
      "bab": 2882,
      "##tiği": 2883,
      "##jı": 2884,
      "ineğin": 2885,
      "yakınını": 2886,
      "ağaca": 2887,
      "ormanın": 2888,
      "üzeredir": 2889,
      "fasulye": 2890,
      "ov": 2891,
      "##ören": 2892,
      "rı": 2893,
      "##kat": 2894,
      "düşen": 2895,
      "marul": 2896,
      "bölgede": 2897,
      "koltuğunda": 2898,
      "tören": 2899,
      "ül": 2900,
      "binerken": 2901,
      "##ilerin": 2902,
      "dükkan": 2903,
      "##ete": 2904,
      "toplu": 2905,
      "martı": 2906,
      "##sindeki": 2907,
      "tabel": 2908,
      "tabela": 2909,
      "taki": 2910,
      "##ıcı": 2911,
      "çıkıntı": 2912,
      "tadını": 2913,
      "doğada": 2914,
      "##masını": 2915,
      "ana": 2916,
      "yakalamaya": 2917,
      "dayanan": 2918,
      "kızı": 2919,
      "vin": 2920,
      "beys": 2921,
      "sırtında": 2922,
      "##ğının": 2923,
      "geliyor": 2924,
      "başk": 2925,
      "kanepeye": 2926,
      "bitkiler": 2927,
      "koltukta": 2928,
      "düzlemi": 2929,
      "kıvr": 2930,
      "du": 2931,
      "##landır": 2932,
      "tuvaletli": 2933,
      "boyan": 2934,
      "boynuz": 2935,
      "model": 2936,
      "sam": 2937,
      "##las": 2938,
      "kişis": 2939,
      "kıyafeti": 2940,
      "atlı": 2941,
      "serp": 2942,
      "istasyonunun": 2943,
      "kabin": 2944,
      "böl": 2945,
      "##efendi": 2946,
      "beysbol": 2947,
      "tes": 2948,
      "pizzanın": 2949,
      "meyilli": 2950,
      "dağda": 2951,
      "aracın": 2952,
      "ızgar": 2953,
      "kişisel": 2954,
      "##lamak": 2955,
      "ner": 2956,
      "çub": 2957,
      "kaykayında": 2958,
      "para": 2959,
      "sürücü": 2960,
      "penceresinden": 2961,
      "gölge": 2962,
      "torba": 2963,
      "kavan": 2964,
      "##tage": 2965,
      "##ulur": 2966,
      "##umu": 2967,
      "eriş": 2968,
      "yeri": 2969,
      "duvardaki": 2970,
      "limon": 2971,
      "amer": 2972,
      "##olu": 2973,
      "##alıyor": 2974,
      "arabada": 2975,
      "yürümekte": 2976,
      "bölüm": 2977,
      "kavanoz": 2978,
      "##idi": 2979,
      "karn": 2980,
      "dolması": 2981,
      "garip": 2982,
      "##kı": 2983,
      "##sır": 2984,
      "uçakta": 2985,
      "karta": 2986,
      "çekiliyor": 2987,
      "vitrin": 2988,
      "minibüs": 2989,
      "vintage": 2990,
      "##isinin": 2991,
      "sokağının": 2992,
      "köpekle": 2993,
      "sallar": 2994,
      "soslu": 2995,
      "peynirli": 2996,
      "dolaplı": 2997,
      "bavulun": 2998,
      "dikkat": 2999,
      "çak": 3000,
      "kaç": 3001,
      "duvarlar": 3002,
      "ketç": 3003,
      "fig": 3004,
      "püs": 3005,
      "##lemek": 3006,
      "##ıyordu": 3007,
      "yeme": 3008,
      "çekici": 3009,
      "çimenlik": 3010,
      "gökyüzünün": 3011,
      "püsk": 3012,
      "yemekleri": 3013,
      "çubuk": 3014,
      "ketçap": 3015,
      "çiç": 3016,
      "istasyona": 3017,
      "giren": 3018,
      "avluda": 3019,
      "alın": 3020,
      "şekil": 3021,
      "rampanın": 3022,
      "liman": 3023,
      "##aj": 3024,
      "##ürme": 3025,
      "merkezinde": 3026,
      "zey": 3027,
      "##uluyor": 3028,
      "##iyi": 3029,
      "dalgalara": 3030,
      "ormandaki": 3031,
      "olduğunu": 3032,
      "inşaat": 3033,
      "sh": 3034,
      "sta": 3035,
      "##yat": 3036,
      "çekilen": 3037,
      "özel": 3038,
      "##dık": 3039,
      "post": 3040,
      "kola": 3041,
      "topunda": 3042,
      "kızartma": 3043,
      "manzaralı": 3044,
      "pep": 3045,
      "##mut": 3046,
      "köpeğe": 3047,
      "yükselen": 3048,
      "toz": 3049,
      "am": 3050,
      "##isine": 3051,
      "ard": 3052,
      "sala": 3053,
      "resimde": 3054,
      "yamaca": 3055,
      "sakin": 3056,
      "tabelası": 3057,
      "zeytin": 3058,
      "üz": 3059,
      "pişirme": 3060,
      "##cin": 3061,
      "ince": 3062,
      "karmaşık": 3063,
      "parti": 3064,
      "sürüc": 3065,
      "kabar": 3066,
      "aletleri": 3067,
      "söndürme": 3068,
      "kentsel": 3069,
      "stop": 3070,
      "insanları": 3071,
      "sahte": 3072,
      "##eğini": 3073,
      "ağaçtan": 3074,
      "gömleksiz": 3075,
      "yerleştirildi": 3076,
      "eşyalar": 3077,
      "##bat": 3078,
      "yemeye": 3079,
      "lavaboda": 3080,
      "dalgalar": 3081,
      "mobilyalar": 3082,
      "kova": 3083,
      "amerik": 3084,
      "tepe": 3085,
      "hazırdır": 3086,
      "bebeği": 3087,
      "sopayı": 3088,
      "iner": 3089,
      "atların": 3090,
      "saha": 3091,
      "tezgahının": 3092,
      "koltu": 3093,
      "ora": 3094,
      "##raz": 3095,
      "altından": 3096,
      "şapkası": 3097,
      "parkın": 3098,
      "mutfağa": 3099,
      "çeker": 3100,
      "yiyeceklerle": 3101,
      "kayaların": 3102,
      "kafa": 3103,
      "giriyor": 3104,
      "islak": 3105,
      "yansıması": 3106,
      "salatası": 3107,
      "çin": 3108,
      "##ug": 3109,
      "##lamaya": 3110,
      "##ırı": 3111,
      "gölet": 3112,
      "geçiş": 3113,
      "tabaklar": 3114,
      "duvarlara": 3115,
      "##lıklı": 3116,
      "olur": 3117,
      "kesim": 3118,
      "yatağı": 3119,
      "istasyonuna": 3120,
      "bağlanmış": 3121,
      "##leyici": 3122,
      "terk": 3123,
      "pazarda": 3124,
      "sıçra": 3125,
      "dağı": 3126,
      "çap": 3127,
      "otobüsler": 3128,
      "parmak": 3129,
      "buzlu": 3130,
      "sert": 3131,
      "vuruş": 3132,
      "malzem": 3133,
      "kasaba": 3134,
      "palm": 3135,
      "bür": 3136,
      "tarl": 3137,
      "binalarla": 3138,
      "atıcı": 3139,
      "dondurma": 3140,
      "say": 3141,
      "otlar": 3142,
      "##mamış": 3143,
      "oyunda": 3144,
      "ann": 3145,
      "derin": 3146,
      "mı": 3147,
      "yıl": 3148,
      "soda": 3149,
      "okuyor": 3150,
      "aynası": 3151,
      "hazırlanmış": 3152,
      "saçlarını": 3153,
      "yönlendir": 3154,
      "klavyenin": 3155,
      "hanım": 3156,
      "deng": 3157,
      "tüylü": 3158,
      "##gon": 3159,
      "##uştur": 3160,
      "aynalı": 3161,
      "sergileniyor": 3162,
      "korkuluk": 3163,
      "palmiye": 3164,
      "loko": 3165,
      "üf": 3166,
      "##sik": 3167,
      "##sini": 3168,
      "bej": 3169,
      "bakmak": 3170,
      "motosikletle": 3171,
      "##laşıyor": 3172,
      "##ilerle": 3173,
      "vuruyor": 3174,
      "yamaçta": 3175,
      "püskür": 3176,
      "lokomo": 3177,
      "sap": 3178,
      "##ân": 3179,
      "üste": 3180,
      "arabayla": 3181,
      "şortlu": 3182,
      "yerleş": 3183,
      "kaseler": 3184,
      "gıdalar": 3185,
      "hızlı": 3186,
      "##gil": 3187,
      "##meyi": 3188,
      "##int": 3189,
      "##undaki": 3190,
      "tepesine": 3191,
      "kuşu": 3192,
      "dalında": 3193,
      "şişesi": 3194,
      "mikrofon": 3195,
      "görüleb": 3196,
      "snowboardçu": 3197,
      "lap": 3198,
      "##arım": 3199,
      "yüzüyor": 3200,
      "kravatını": 3201,
      "dağların": 3202,
      "çapraz": 3203,
      "klo": 3204,
      "işaretli": 3205,
      "dolusu": 3206,
      "çevre": 3207,
      "bahçe": 3208,
      "yukari": 3209,
      "lokomotif": 3210,
      "uc": 3211,
      "çiğ": 3212,
      "işık": 3213,
      "yolunun": 3214,
      "kayaklarla": 3215,
      "basket": 3216,
      "karanlıkta": 3217,
      "eşyaları": 3218,
      "yedi": 3219,
      "##uluğu": 3220,
      "binası": 3221,
      "bilgisayara": 3222,
      "ağaçları": 3223,
      "kula": 3224,
      "caddeye": 3225,
      "çiçeklerin": 3226,
      "rafı": 3227,
      "yamacında": 3228,
      "metre": 3229,
      "##latıyor": 3230,
      "gelin": 3231,
      "kadınla": 3232,
      "uçurum": 3233,
      "##vi": 3234,
      "göğ": 3235,
      "kanat": 3236,
      "şemsiyeleri": 3237,
      "gözlem": 3238,
      "ortasındaki": 3239,
      "yaslanan": 3240,
      "nehrin": 3241,
      "yorgan": 3242,
      "##luyor": 3243,
      "##oo": 3244,
      "##gen": 3245,
      "##cil": 3246,
      "##suz": 3247,
      "##ülmüş": 3248,
      "orada": 3249,
      "asan": 3250,
      "ateş": 3251,
      "tenek": 3252,
      "yakındır": 3253,
      "##ımında": 3254,
      "arabaya": 3255,
      "kanepeler": 3256,
      "snowboarder": 3257,
      "##inci": 3258,
      "mac": 3259,
      "şömineli": 3260,
      "yukariya": 3261,
      "kış": 3262,
      "pay": 3263,
      "##rik": 3264,
      "adamlar": 3265,
      "arasından": 3266,
      "antr": 3267,
      "direğe": 3268,
      "kemer": 3269,
      "üzüm": 3270,
      "duv": 3271,
      "ran": 3272,
      "##celi": 3273,
      "nokta": 3274,
      "ait": 3275,
      "##ku": 3276,
      "domuz": 3277,
      "pastırma": 3278,
      "kot": 3279,
      "##manlı": 3280,
      "istif": 3281,
      "mikt": 3282,
      "öğeler": 3283,
      "belir": 3284,
      "##ülen": 3285,
      "yönlü": 3286,
      "kısmı": 3287,
      "gitar": 3288,
      "duvarı": 3289,
      "yanan": 3290,
      "almak": 3291,
      "motosikletler": 3292,
      "ekm": 3293,
      "fincanı": 3294,
      "burn": 3295,
      "##mesini": 3296,
      "kapak": 3297,
      "çimlerde": 3298,
      "ağacının": 3299,
      "ort": 3300,
      "takmış": 3301,
      "paslı": 3302,
      "pencerede": 3303,
      "plajın": 3304,
      "şemsiyeyle": 3305,
      "höy": 3306,
      "lok": 3307,
      "##ağını": 3308,
      "tepeye": 3309,
      "asker": 3310,
      "süslenmiştir": 3311,
      "klozet": 3312,
      "basketbol": 3313,
      "##düğü": 3314,
      "eti": 3315,
      "mermer": 3316,
      "kablo": 3317,
      "salonda": 3318,
      "havaliman": 3319,
      "büro": 3320,
      "miktarda": 3321,
      "##tının": 3322,
      "kesiş": 3323,
      "sergi": 3324,
      "##ğuna": 3325,
      "bagajın": 3326,
      "araçlar": 3327,
      "seyre": 3328,
      "battaniy": 3329,
      "ayrı": 3330,
      "kros": 3331,
      "klas": 3332,
      "görev": 3333,
      "tahtasının": 3334,
      "kons": 3335,
      "nerede": 3336,
      "af": 3337,
      "##sta": 3338,
      "biriyle": 3339,
      "##ram": 3340,
      "atmak": 3341,
      "tekme": 3342,
      "okuyan": 3343,
      "##ec": 3344,
      "tuvaleti": 3345,
      "caddeyi": 3346,
      "serilmiş": 3347,
      "buzdolabında": 3348,
      "çatalla": 3349,
      "tasma": 3350,
      "il": 3351,
      "##isini": 3352,
      "sig": 3353,
      "ağaçlı": 3354,
      "sarılı": 3355,
      "arabalarla": 3356,
      "çalışır": 3357,
      "manzara": 3358,
      "yarışıyor": 3359,
      "karışık": 3360,
      "şirin": 3361,
      "stady": 3362,
      "peç": 3363,
      "##sör": 3364,
      "##oni": 3365,
      "çimenlikte": 3366,
      "tarlaya": 3367,
      "kurul": 3368,
      "aleti": 3369,
      "pepper": 3370,
      "ton": 3371,
      "otsu": 3372,
      "içeri": 3373,
      "çalıların": 3374,
      "kenarına": 3375,
      "çevir": 3376,
      "donat": 3377,
      "devam": 3378,
      "ızgara": 3379,
      "nesne": 3380,
      "bayrağı": 3381,
      "bun": 3382,
      "dub": 3383,
      "##amik": 3384,
      "otobüsle": 3385,
      "birbirleriyle": 3386,
      "dilimi": 3387,
      "kayakçısı": 3388,
      "kortundaki": 3389,
      "düşük": 3390,
      "stil": 3391,
      "dinlen": 3392,
      "amerikan": 3393,
      "lon": 3394,
      "##pan": 3395,
      "##esiyle": 3396,
      "uçuş": 3397,
      "işi": 3398,
      "arabaları": 3399,
      "kucak": 3400,
      "birbirlerinin": 3401,
      "bankın": 3402,
      "örtülü": 3403,
      "hemen": 3404,
      "figür": 3405,
      "çiçeği": 3406,
      "ilerle": 3407,
      "kortunun": 3408,
      "korid": 3409,
      "sinyali": 3410,
      "boynuzlu": 3411,
      "koridor": 3412,
      "por": 3413,
      "kayaklara": 3414,
      "kutunun": 3415,
      "dağlarla": 3416,
      "sinyal": 3417,
      "piy": 3418,
      "keli": 3419,
      "mutfağında": 3420,
      "boyut": 3421,
      "köşesi": 3422,
      "lambaları": 3423,
      "merkezi": 3424,
      "düzenlenmiştir": 3425,
      "parkurda": 3426,
      "güvercin": 3427,
      "##fi": 3428,
      "kayar": 3429,
      "uçağa": 3430,
      "görüş": 3431,
      "li": 3432,
      "##makta": 3433,
      "ağaçta": 3434,
      "sıv": 3435,
      "döşenen": 3436,
      "gezinen": 3437,
      "dondurucu": 3438,
      "sürücüsü": 3439,
      "##cık": 3440,
      "gön": 3441,
      "içinden": 3442,
      "başı": 3443,
      "başının": 3444,
      "çiftlik": 3445,
      "eksik": 3446,
      "pistten": 3447,
      "ağır": 3448,
      "halka": 3449,
      "tepsisi": 3450,
      "##liyle": 3451,
      "seyirci": 3452,
      "rıht": 3453,
      "ın": 3454,
      "##ag": 3455,
      "##men": 3456,
      "##fer": 3457,
      "otların": 3458,
      "durak": 3459,
      "##madan": 3460,
      "çıktı": 3461,
      "hardal": 3462,
      "direğ": 3463,
      "çizgi": 3464,
      "döşeli": 3465,
      "ters": 3466,
      "mağazanın": 3467,
      "kabarık": 3468,
      "om": 3469,
      "yemekler": 3470,
      "çekim": 3471,
      "izi": 3472,
      "pencereye": 3473,
      "gömle": 3474,
      "camı": 3475,
      "televizyonda": 3476,
      "kitaplar": 3477,
      "direkleri": 3478,
      "tepside": 3479,
      "eğimde": 3480,
      "seyreden": 3481,
      "baba": 3482,
      "bl": 3483,
      "yatarken": 3484,
      "taksi": 3485,
      "sıraya": 3486,
      "tarafı": 3487,
      "yüzünde": 3488,
      "seramik": 3489,
      "köşe": 3490,
      "tava": 3491,
      "bahçesindeki": 3492,
      "neon": 3493,
      "asansör": 3494,
      "dublör": 3495,
      "atlarla": 3496,
      "açıktır": 3497,
      "fotoğrafta": 3498,
      "##tırıyor": 3499,
      "kayakçılar": 3500,
      "gölün": 3501,
      "direği": 3502,
      "dükkân": 3503,
      "köprüden": 3504,
      "içerir": 3505,
      "balon": 3506,
      "olduk": 3507,
      "krema": 3508,
      "tabaka": 3509,
      "bardağı": 3510,
      "ışıklar": 3511,
      "termin": 3512,
      "şerid": 3513,
      "sayf": 3514,
      "mısır": 3515,
      "terminal": 3516,
      "##yse": 3517,
      "ingil": 3518,
      "##ağan": 3519,
      "duruyorlardı": 3520,
      "##enci": 3521,
      "resimleri": 3522,
      "kapıda": 3523,
      "eğimle": 3524,
      "cips": 3525,
      "sis": 3526,
      "##ses": 3527,
      "##ğunun": 3528,
      "##urger": 3529,
      "mutfağı": 3530,
      "bisikletçi": 3531,
      "vagon": 3532,
      "nesn": 3533,
      "hepsi": 3534,
      "neredeyse": 3535,
      "ap": 3536,
      "##sun": 3537,
      "parlıyor": 3538,
      "güler": 3539,
      "vazosu": 3540,
      "plakası": 3541,
      "##layarak": 3542,
      "##lendirilmiş": 3543,
      "##aktör": 3544,
      "tip": 3545,
      "topuz": 3546,
      "telefonla": 3547,
      "sandalyeli": 3548,
      "doğal": 3549,
      "halde": 3550,
      "satılık": 3551,
      "pervane": 3552,
      "sehp": 3553,
      "öl": 3554,
      "kale": 3555,
      "etmek": 3556,
      "pencereler": 3557,
      "muzun": 3558,
      "yokuş": 3559,
      "eğlence": 3560,
      "değiş": 3561,
      "çayırda": 3562,
      "tarzı": 3563,
      "sigara": 3564,
      "hiç": 3565,
      "ima": 3566,
      "traktör": 3567,
      "##labilir": 3568,
      "yüksel": 3569,
      "restoranın": 3570,
      "şeritli": 3571,
      "fıst": 3572,
      "erişte": 3573,
      "pepperoni": 3574,
      "londra": 3575,
      "büf": 3576,
      "ch": 3577,
      "le": 3578,
      "loş": 3579,
      "##irken": 3580,
      "tabla": 3581,
      "zebranın": 3582,
      "veranda": 3583,
      "arasındaki": 3584,
      "mesaj": 3585,
      "##mun": 3586,
      "##düz": 3587,
      "kayanın": 3588,
      "döv": 3589,
      "çarpan": 3590,
      "yelek": 3591,
      "içecekler": 3592,
      "kiz": 3593,
      "sur": 3594,
      "sını": 3595,
      "th": 3596,
      "##ulan": 3597,
      "tutun": 3598,
      "görülüyor": 3599,
      "otobüse": 3600,
      "sırlı": 3601,
      "karayolu": 3602,
      "rampadan": 3603,
      "kuyruk": 3604,
      "gol": 3605,
      "katı": 3606,
      "##üyle": 3607,
      "koşu": 3608,
      "fırçasıyla": 3609,
      "otomobiller": 3610,
      "şeye": 3611,
      "##suna": 3612,
      "##lacak": 3613,
      "kargo": 3614,
      "sahi": 3615,
      "fotoğrafını": 3616,
      "gündüz": 3617,
      "uçurtmalarla": 3618,
      "##uklu": 3619,
      "pistteki": 3620,
      "sonr": 3621,
      "yönde": 3622,
      "askı": 3623,
      "çömel": 3624,
      "klasik": 3625,
      "##arlar": 3626,
      "##liğinde": 3627,
      "binici": 3628,
      "etkin": 3629,
      "parlayan": 3630,
      "şemsiyeler": 3631,
      "bot": 3632,
      "kayalar": 3633,
      "yaklaşıyor": 3634,
      "desenli": 3635,
      "ilgili": 3636,
      "soyulmuş": 3637,
      "rıhtım": 3638,
      "eliyle": 3639,
      "kim": 3640,
      "sek": 3641,
      "##gesi": 3642,
      "##masına": 3643,
      "##memiş": 3644,
      "konuşur": 3645,
      "besleyen": 3646,
      "dükkanda": 3647,
      "laptop": 3648,
      "air": 3649,
      "lig": 3650,
      "tabakası": 3651,
      "makine": 3652,
      "kurab": 3653,
      "bük": 3654,
      "##ranmış": 3655,
      "koltuğu": 3656,
      "benzeyen": 3657,
      "çakıl": 3658,
      "tarlasında": 3659,
      "it": 3660,
      "oturmaktadır": 3661,
      "karton": 3662,
      "taşır": 3663,
      "beklemektedir": 3664,
      "levhasının": 3665,
      "hala": 3666,
      "gerek": 3667,
      "##tel": 3668,
      "tabağın": 3669,
      "geçti": 3670,
      "kutuları": 3671,
      "keser": 3672,
      "çıkın": 3673,
      "##leşen": 3674,
      "uzanır": 3675,
      "dönen": 3676,
      "yaslanır": 3677,
      "yağmurlu": 3678,
      "pano": 3679,
      "mumlar": 3680,
      "yaklaşan": 3681,
      "perdesi": 3682,
      "asfaltta": 3683,
      "çerez": 3684,
      "hamb": 3685,
      "kit": 3686,
      "##lendi": 3687,
      "çalılar": 3688,
      "sonunda": 3689,
      "satan": 3690,
      "az": 3691,
      "fi": 3692,
      "tablet": 3693,
      "odak": 3694,
      "piste": 3695,
      "resmin": 3696,
      "turist": 3697,
      "yürürler": 3698,
      "eğimli": 3699,
      "levha": 3700,
      "çevrilidir": 3701,
      "aletler": 3702,
      "tencereye": 3703,
      "dolmalık": 3704,
      "sabit": 3705,
      "samimi": 3706,
      "hort": 3707,
      "lo": 3708,
      "##dik": 3709,
      "##asi": 3710,
      "ayının": 3711,
      "arayan": 3712,
      "sosu": 3713,
      "arabaların": 3714,
      "kup": 3715,
      "plakalı": 3716,
      "vuran": 3717,
      "denetleyicileri": 3718,
      "may": 3719,
      "suyla": 3720,
      "kamp": 3721,
      "otururlar": 3722,
      "şemsiyesi": 3723,
      "platformda": 3724,
      "oldukça": 3725,
      "em": 3726,
      "pil": 3727,
      "şo": 3728,
      "##kü": 3729,
      "kadını": 3730,
      "örg": 3731,
      "damat": 3732,
      "yapraklı": 3733,
      "dikiz": 3734,
      "pişiriyor": 3735,
      "mid": 3736,
      "ölü": 3737,
      "yanındadır": 3738,
      "##ıkn": 3739,
      "##lerinden": 3740,
      "kızlar": 3741,
      "yazıyor": 3742,
      "şemsiyeye": 3743,
      "koşuştur": 3744,
      "oğlanın": 3745,
      "dükkanın": 3746,
      "kulaklık": 3747,
      "sınıf": 3748,
      "bunun": 3749,
      "lek": 3750,
      "##ly": 3751,
      "##gin": 3752,
      "##kon": 3753,
      "##urt": 3754,
      "sahile": 3755,
      "banyosu": 3756,
      "açan": 3757,
      "pisti": 3758,
      "trafikte": 3759,
      "zemine": 3760,
      "tank": 3761,
      "salonunda": 3762,
      "seyirc": 3763,
      "boyanmış": 3764,
      "hamburger": 3765,
      "##ganın": 3766,
      "##boy": 3767,
      "##abilir": 3768,
      "##leyerek": 3769,
      "yiyecekleri": 3770,
      "meydan": 3771,
      "koru": 3772,
      "akses": 3773,
      "izlemek": 3774,
      "ker": 3775,
      "mıkn": 3776,
      "##yu": 3777,
      "##ize": 3778,
      "trans": 3779,
      "gözleri": 3780,
      "anlat": 3781,
      "köprünün": 3782,
      "tepedeki": 3783,
      "##ütün": 3784,
      "sıvı": 3785,
      "mıknatı": 3786,
      "sist": 3787,
      "##ğini": 3788,
      "##by": 3789,
      "binmek": 3790,
      "arada": 3791,
      "ett": 3792,
      "etek": 3793,
      "kanepeli": 3794,
      "elmalar": 3795,
      "tabloda": 3796,
      "muhafazasında": 3797,
      "otomobilin": 3798,
      "pastasını": 3799,
      "otlatır": 3800,
      "fol": 3801,
      "la": 3802,
      "##tuğu": 3803,
      "birinde": 3804,
      "ikisi": 3805,
      "sokağına": 3806,
      "tabağında": 3807,
      "sudan": 3808,
      "tezgahlı": 3809,
      "takip": 3810,
      "çekildi": 3811,
      "raketine": 3812,
      "muzla": 3813,
      "##larındaki": 3814,
      "bıçağı": 3815,
      "tasarım": 3816,
      "eldiveni": 3817,
      "duy": 3818,
      "vak": 3819,
      "kapaklı": 3820,
      "hayvanlarla": 3821,
      "vurdu": 3822,
      "süslem": 3823,
      "mez": 3824,
      "rampaya": 3825,
      "burada": 3826,
      "kurabiye": 3827,
      "aksesuar": 3828,
      "sistem": 3829,
      "##ve": 3830,
      "##ğin": 3831,
      "##asıyla": 3832,
      "binasının": 3833,
      "geçmiş": 3834,
      "teknesi": 3835,
      "kullanırken": 3836,
      "onlara": 3837,
      "batımında": 3838,
      "yavaş": 3839,
      "aydınlatma": 3840,
      "##lukla": 3841,
      "çamurlu": 3842,
      "çevreleyen": 3843,
      "olay": 3844,
      "##lin": 3845,
      "##çisi": 3846,
      "kart": 3847,
      "çimde": 3848,
      "tezgahlar": 3849,
      "##leye": 3850,
      "daire": 3851,
      "antika": 3852,
      "çiğn": 3853,
      "bik": 3854,
      "bütün": 3855,
      "##liş": 3856,
      "##est": 3857,
      "yemekte": 3858,
      "##esindeki": 3859,
      "güven": 3860,
      "dalgaları": 3861,
      "ortada": 3862,
      "savur": 3863,
      "seç": 3864,
      "yürüyüşe": 3865,
      "kovboy": 3866,
      "pazarında": 3867,
      "sel": 3868,
      "paraş": 3869,
      "sarılmış": 3870,
      "sokaklarda": 3871,
      "##ğuk": 3872,
      "tutuyordu": 3873,
      "çamaş": 3874,
      "anlatim": 3875,
      "fen": 3876,
      "key": 3877,
      "##can": 3878,
      "##vanın": 3879,
      "##aber": 3880,
      "masalar": 3881,
      "kanad": 3882,
      "kutuya": 3883,
      "yürüme": 3884,
      "##leksiyon": 3885,
      "eğit": 3886,
      "duşlu": 3887,
      "örtüs": 3888,
      "çıkartma": 3889,
      "güverte": 3890,
      "ik": 3891,
      "##riye": 3892,
      "masaüst": 3893,
      "##amak": 3894,
      "kapağı": 3895,
      "bilgisayarında": 3896,
      "tepeler": 3897,
      "hazırlar": 3898,
      "sürük": 3899,
      "sandviçler": 3900,
      "çıkaran": 3901,
      "tencerede": 3902,
      "kilisenin": 3903,
      "papağan": 3904,
      "blok": 3905,
      "çıkıntının": 3906,
      "haya": 3907,
      "jamb": 3908,
      "##yatür": 3909,
      "##izi": 3910,
      "kapan": 3911,
      "bilgisayarlar": 3912,
      "saatler": 3913,
      "kolu": 3914,
      "yüzeyde": 3915,
      "minyatür": 3916,
      "paraşüt": 3917,
      "iri": 3918,
      "##ear": 3919,
      "##esel": 3920,
      "günlük": 3921,
      "duvarlı": 3922,
      "soğuk": 3923,
      "hayvanın": 3924,
      "kumaş": 3925,
      "caddesinde": 3926,
      "yüzme": 3927,
      "yüzünü": 3928,
      "koleksiyon": 3929,
      "kumsalın": 3930,
      "çizgis": 3931,
      "tanesi": 3932,
      "görülen": 3933,
      "mıknatıs": 3934,
      "öp": 3935,
      "##lah": 3936,
      "##iyet": 3937,
      "çoğun": 3938,
      "parktaki": 3939,
      "fırla": 3940,
      "##lanmıştır": 3941,
      "sebzeleri": 3942,
      "sebzelerin": 3943,
      "kedisi": 3944,
      "şömin": 3945,
      "tişörtlü": 3946,
      "görülebilir": 3947,
      "ekmeği": 3948,
      "folyo": 3949,
      "men": 3950,
      "##ula": 3951,
      "birine": 3952,
      "mask": 3953,
      "arabasının": 3954,
      "fırını": 3955,
      "şehirdeki": 3956,
      "kano": 3957,
      "kaldırımında": 3958,
      "dolapları": 3959,
      "krep": 3960,
      "kontrolör": 3961,
      "daki": 3962,
      "olabilir": 3963,
      "##om": 3964,
      "##ret": 3965,
      "##opar": 3966,
      "gençler": 3967,
      "yürümek": 3968,
      "aynada": 3969,
      "çanak": 3970,
      "tahtalarına": 3971,
      "uyku": 3972,
      "dolaşırlar": 3973,
      "geziyor": 3974,
      "binerler": 3975,
      "çerçeveli": 3976,
      "ranza": 3977,
      "gönder": 3978,
      "transit": 3979,
      "jambon": 3980,
      "pür": 3981,
      "##tık": 3982,
      "kaplar": 3983,
      "gülüyor": 3984,
      "yiyeceklerin": 3985,
      "taşın": 3986,
      "yakalar": 3987,
      "raflar": 3988,
      "şişeleri": 3989,
      "örtü": 3990,
      "sepeti": 3991,
      "kostümlü": 3992,
      "olgunlaş": 3993,
      "ingiliz": 3994,
      "ey": 3995,
      "jum": 3996,
      "##ji": 3997,
      "##ong": 3998,
      "katmanlı": 3999,
      "çalışırken": 4000,
      "yetişkinler": 4001,
      "big": 4002,
      "tepsiye": 4003,
      "pençe": 4004,
      "etiketli": 4005,
      "yardımcı": 4006,
      "antren": 4007,
      "ettiler": 4008,
      "çoğunlukla": 4009,
      "şaş": 4010,
      "motosikletlerin": 4011,
      "motosikletçi": 4012,
      "arkasından": 4013,
      "güç": 4014,
      "kutusunda": 4015,
      "pistinin": 4016,
      "camın": 4017,
      "donan": 4018,
      "kumsaldaki": 4019,
      "kumandayla": 4020,
      "arabasıyla": 4021,
      "kendini": 4022,
      "sehpa": 4023,
      "arazide": 4024,
      "buharlı": 4025,
      "tuta": 4026,
      "##bek": 4027,
      "##ahar": 4028,
      "##okey": 4029,
      "oynan": 4030,
      "açılmış": 4031,
      "yerden": 4032,
      "tezgahlarda": 4033,
      "açıkken": 4034,
      "dışarıya": 4035,
      "bağlantı": 4036,
      "musı": 4037,
      "sayacının": 4038,
      "çorb": 4039,
      "gölgede": 4040,
      "eğlenceli": 4041,
      "ayağı": 4042,
      "havalimanında": 4043,
      "donatılmış": 4044,
      "##sını": 4045,
      "##anta": 4046,
      "yanaş": 4047,
      "yapılan": 4048,
      "kalp": 4049,
      "duvarları": 4050,
      "kaldırımdan": 4051,
      "ancak": 4052,
      "kulağına": 4053,
      "hüc": 4054,
      "uyan": 4055,
      "resme": 4056,
      "tahtada": 4057,
      "dolaşırken": 4058,
      "delik": 4059,
      "biniyorlar": 4060,
      "kıyıya": 4061,
      "yayalar": 4062,
      "komik": 4063,
      "tamamen": 4064,
      "omz": 4065,
      "not": 4066,
      "##son": 4067,
      "##çinin": 4068,
      "##lamış": 4069,
      "##emek": 4070,
      "kayakla": 4071,
      "tekneye": 4072,
      "evcil": 4073,
      "buzağı": 4074,
      "dağa": 4075,
      "yumuş": 4076,
      "tasar": 4077,
      "tırmanan": 4078,
      "kapatın": 4079,
      "giysiler": 4080,
      "ez": 4081,
      "##meler": 4082,
      "##rap": 4083,
      "part": 4084,
      "sürme": 4085,
      "oynuyorlardı": 4086,
      "direğin": 4087,
      "karayol": 4088,
      "çantanın": 4089,
      "hiçbir": 4090,
      "iğ": 4091,
      "silah": 4092,
      "yakınlardaki": 4093,
      "dizisi": 4094,
      "gökkuş": 4095,
      "caddesi": 4096,
      "caddesindeki": 4097,
      "eğiliyor": 4098,
      "küvetin": 4099,
      "mahal": 4100,
      "kalkış": 4101,
      "fırçalıyor": 4102,
      "piyan": 4103,
      "hot": 4104,
      "ses": 4105,
      "##rar": 4106,
      "oyuncağı": 4107,
      "önlük": 4108,
      "film": 4109,
      "konut": 4110,
      "muzlu": 4111,
      "anah": 4112,
      "salınmaya": 4113,
      "içeriyor": 4114,
      "dökülen": 4115,
      "yerleşim": 4116,
      "ilk": 4117,
      "jumbo": 4118,
      "bor": 4119,
      "##don": 4120,
      "etki": 4121,
      "etmiş": 4122,
      "okurken": 4123,
      "kumun": 4124,
      "kitab": 4125,
      "çörekler": 4126,
      "şemsiyeyi": 4127,
      "yolculuğu": 4128,
      "hattı": 4129,
      "durdurma": 4130,
      "tablonun": 4131,
      "``": 4132,
      "müş": 4133,
      "wear": 4134,
      "zar": 4135,
      "durduğu": 4136,
      "##ışlı": 4137,
      "çoğu": 4138,
      "üstünden": 4139,
      "elle": 4140,
      "##ftek": 4141,
      "fırt": 4142,
      "oku": 4143,
      "kutuda": 4144,
      "aşçı": 4145,
      "trafiğ": 4146,
      "##ilmiştir": 4147,
      "güneşin": 4148,
      "yolcular": 4149,
      "koşuyor": 4150,
      "biftek": 4151,
      "klavyesinin": 4152,
      "dekorasyon": 4153,
      "masaüstünde": 4154,
      "wearing": 4155,
      "cup": 4156,
      "##sak": 4157,
      "##ple": 4158,
      "atılan": 4159,
      "havadan": 4160,
      "sandviçte": 4161,
      "ineklerin": 4162,
      "##tıran": 4163,
      "onları": 4164,
      "başkaları": 4165,
      "yaşayan": 4166,
      "ağız": 4167,
      "plaja": 4168,
      "deft": 4169,
      "yerdeki": 4170,
      "üret": 4171,
      "yemeğinde": 4172,
      "##od": 4173,
      "küp": 4174,
      "grub": 4175,
      "##orması": 4176,
      "etmeye": 4177,
      "kalın": 4178,
      "kurulu": 4179,
      "dikenli": 4180,
      "gezen": 4181,
      "limanın": 4182,
      "platformun": 4183,
      "yabancı": 4184,
      "ortak": 4185,
      "sark": 4186,
      "sahaya": 4187,
      "alk": 4188,
      "sandalyesi": 4189,
      "uygu": 4190,
      "kafasını": 4191,
      "kavşaktan": 4192,
      "beklerken": 4193,
      "ortamda": 4194,
      "sonraki": 4195,
      "fan": 4196,
      "set": 4197,
      "##derken": 4198,
      "##erler": 4199,
      "yerine": 4200,
      "kuşun": 4201,
      "somut": 4202,
      "ışıklarının": 4203,
      "kağıd": 4204,
      "kabini": 4205,
      "rampada": 4206,
      "bavulda": 4207,
      "koşan": 4208,
      "burger": 4209,
      "kalabalığı": 4210,
      "sinek": 4211,
      "kazan": 4212,
      "hatt": 4213,
      "dinlenme": 4214,
      "yumuşak": 4215,
      "ama": 4216,
      "cüz": 4217,
      "kesi": 4218,
      "üs": 4219,
      "##sh": 4220,
      "inc": 4221,
      "yakınına": 4222,
      "kaplama": 4223,
      "havayı": 4224,
      "motosiklete": 4225,
      "kutusunun": 4226,
      "koç": 4227,
      "bahar": 4228,
      "kafası": 4229,
      "raylarında": 4230,
      "penç": 4231,
      "kamyonetin": 4232,
      "müzik": 4233,
      "fıstık": 4234,
      "cupcak": 4235,
      "biç": 4236,
      "##kın": 4237,
      "##ledi": 4238,
      "kişiye": 4239,
      "sahildeki": 4240,
      "hazırlanır": 4241,
      "teknelerle": 4242,
      "benzin": 4243,
      "midilli": 4244,
      "nın": 4245,
      "net": 4246,
      "##kinin": 4247,
      "kamu": 4248,
      "yeryüz": 4249,
      "izleri": 4250,
      "buzdolabına": 4251,
      "eğilen": 4252,
      "kütüp": 4253,
      "kaskı": 4254,
      "arkadaşı": 4255,
      "gövdesi": 4256,
      "gazete": 4257,
      "silu": 4258,
      "kütüphan": 4259,
      "çat": 4260,
      "##ldı": 4261,
      "##for": 4262,
      "öne": 4263,
      "önü": 4264,
      "toplantı": 4265,
      "beyefendi": 4266,
      "kullanılan": 4267,
      "kesilir": 4268,
      "yüzüne": 4269,
      "yolcuları": 4270,
      "süsleme": 4271,
      "bulutların": 4272,
      "rampasında": 4273,
      "ceketi": 4274,
      "##elenmiş": 4275,
      "muht": 4276,
      "end": 4277,
      "sahne": 4278,
      "gezinir": 4279,
      "kaşıkla": 4280,
      "ulaşıyor": 4281,
      "satıcı": 4282,
      "ortamında": 4283,
      "deliğ": 4284,
      "ızgarada": 4285,
      "maymun": 4286,
      "musığı": 4287,
      "izg": 4288,
      "van": 4289,
      "##liği": 4290,
      "fillerin": 4291,
      "çekerken": 4292,
      "evlerin": 4293,
      "tahtalarını": 4294,
      "güneşte": 4295,
      "lambasının": 4296,
      "ekranında": 4297,
      "gömlekte": 4298,
      "mumlarla": 4299,
      "ayakkabıları": 4300,
      "balkon": 4301,
      "çadırın": 4302,
      "mekan": 4303,
      "örgü": 4304,
      "##rey": 4305,
      "durağı": 4306,
      "banana": 4307,
      "otobüsleri": 4308,
      "çitten": 4309,
      "kekli": 4310,
      "kapıdan": 4311,
      "kalemde": 4312,
      "iskelede": 4313,
      "rak": 4314,
      "##mi": 4315,
      "yanı": 4316,
      "##abet": 4317,
      "tahıl": 4318,
      "çeşn": 4319,
      "kont": 4320,
      "hayran": 4321,
      "sallayarak": 4322,
      "mera": 4323,
      "##ings": 4324,
      "limana": 4325,
      "hareketli": 4326,
      "baykuş": 4327,
      "kıvrılmış": 4328,
      "hanımefendi": 4329,
      "lastik": 4330,
      "yaparak": 4331,
      "trenli": 4332,
      "telefonunun": 4333,
      "giyimli": 4334,
      "lavabosunun": 4335,
      "kıyıda": 4336,
      "muhafazada": 4337,
      "barbek": 4338,
      "düzenli": 4339,
      "paketi": 4340,
      "değil": 4341,
      "ocağın": 4342,
      "selfi": 4343,
      "giz": 4344,
      "birik": 4345,
      "uçarken": 4346,
      "insanla": 4347,
      "tuttuğu": 4348,
      "çimleri": 4349,
      "havadaki": 4350,
      "başlar": 4351,
      "uçaktan": 4352,
      "geçidi": 4353,
      "çekilir": 4354,
      "kullanır": 4355,
      "poş": 4356,
      "kupa": 4357,
      "kılı": 4358,
      "isteyen": 4359,
      "oluştur": 4360,
      "dikil": 4361,
      "yerleştirilmiştir": 4362,
      "imgesi": 4363,
      "dolabın": 4364,
      "antrenör": 4365,
      "bör": 4366,
      "sın": 4367,
      "##ıma": 4368,
      "attı": 4369,
      "yakınlarda": 4370,
      "açı": 4371,
      "##tre": 4372,
      "kurulmuş": 4373,
      "döng": 4374,
      "basamak": 4375,
      "öğren": 4376,
      "berrak": 4377,
      "partide": 4378,
      "imajı": 4379,
      "barbekü": 4380,
      "selfie": 4381,
      "baz": 4382,
      "dalı": 4383,
      "jokey": 4384,
      "lah": 4385,
      "önünden": 4386,
      "zebr": 4387,
      "günbat": 4388,
      "gökyüzünden": 4389,
      "gökyüzündeki": 4390,
      "küveti": 4391,
      "eşliğinde": 4392,
      "mobilyalarla": 4393,
      "ekranının": 4394,
      "tesli": 4395,
      "şov": 4396,
      "helik": 4397,
      "sir": 4398,
      "vo": 4399,
      "##yen": 4400,
      "##şan": 4401,
      "##talik": 4402,
      "##ebilir": 4403,
      "kayaklarında": 4404,
      "açıyor": 4405,
      "kaldı": 4406,
      "evinde": 4407,
      "kesmek": 4408,
      "şişeler": 4409,
      "yerleştirilen": 4410,
      "bacakları": 4411,
      "ülk": 4412,
      "ülke": 4413,
      "bölün": 4414,
      "macunu": 4415,
      "gökkuşağı": 4416,
      "helikop": 4417,
      "cis": 4418,
      "omuz": 4419,
      "ski": 4420,
      "##oyu": 4421,
      "telefonlarını": 4422,
      "kuman": 4423,
      "##lıkta": 4424,
      "penceresinin": 4425,
      "ayakları": 4426,
      "musluğunun": 4427,
      "atıştırma": 4428,
      "##masında": 4429,
      "##uyla": 4430,
      "ikiz": 4431,
      "##kal": 4432,
      "çoban": 4433,
      "odasına": 4434,
      "sulama": 4435,
      "almaya": 4436,
      "havai": 4437,
      "tekneyle": 4438,
      "uçurtmalara": 4439,
      "##bola": 4440,
      "yüklü": 4441,
      "eğilmiş": 4442,
      "metalik": 4443,
      "eşiğ": 4444,
      "ağzı": 4445,
      "beslenen": 4446,
      "yastıklarla": 4447,
      "rayında": 4448,
      "imza": 4449,
      "öğeleri": 4450,
      "demiryolunda": 4451,
      "bro": 4452,
      "şark": 4453,
      "##meyen": 4454,
      "##üyen": 4455,
      "masalarda": 4456,
      "##teboard": 4457,
      "alanlarında": 4458,
      "ederken": 4459,
      "motosikleti": 4460,
      "bisiklete": 4461,
      "##dog": 4462,
      "çantasında": 4463,
      "kitabı": 4464,
      "kitaplarla": 4465,
      "damalı": 4466,
      "çantalı": 4467,
      "limanda": 4468,
      "eşyalarla": 4469,
      "klavyesi": 4470,
      "dokunuyor": 4471,
      "voley": 4472,
      "pol": 4473,
      "zor": 4474,
      "ısı": 4475,
      "şu": 4476,
      "##meli": 4477,
      "##haf": 4478,
      "##way": 4479,
      "##maz": 4480,
      "##all": 4481,
      "oyunc": 4482,
      "tabby": 4483,
      "treninin": 4484,
      "bilgisayarlarla": 4485,
      "pizzası": 4486,
      "etli": 4487,
      "giyerken": 4488,
      "tabakları": 4489,
      "aynasında": 4490,
      "bac": 4491,
      "dağlar": 4492,
      "kapısının": 4493,
      "eşleşen": 4494,
      "dib": 4495,
      "barın": 4496,
      "dairesel": 4497,
      "tırmanıyor": 4498,
      "pervaneli": 4499,
      "atıştırmalık": 4500,
      "fes": 4501,
      "uğ": 4502,
      "şık": 4503,
      "##liler": 4504,
      "##siyle": 4505,
      "##asıl": 4506,
      "bakış": 4507,
      "çekilmiş": 4508,
      "oluyor": 4509,
      "çiçekleri": 4510,
      "çitinin": 4511,
      "trafiği": 4512,
      "kiraz": 4513,
      "gösteril": 4514,
      "tuğlalı": 4515,
      "kısmında": 4516,
      "kiremit": 4517,
      "sıkışmış": 4518,
      "ışığının": 4519,
      "tuhaf": 4520,
      "ucunda": 4521,
      "yeryüzünde": 4522,
      "birikint": 4523,
      "dans": 4524,
      "hin": 4525,
      "peş": 4526,
      "tutuluyor": 4527,
      "yakından": 4528,
      "topp": 4529,
      "köpekler": 4530,
      "takarken": 4531,
      "bisikleti": 4532,
      "tarafa": 4533,
      "##laşan": 4534,
      "gösterilen": 4535,
      "öğüt": 4536,
      "kütük": 4537,
      "mikrodalganın": 4538,
      "yastıklar": 4539,
      "sıkıştı": 4540,
      "feneri": 4541,
      "şöminenin": 4542,
      "müşter": 4543,
      "börek": 4544,
      "ab": 4545,
      "apar": 4546,
      "bol": 4547,
      "gey": 4548,
      "nasıl": 4549,
      "sız": 4550,
      "çal": 4551,
      "##mı": 4552,
      "##kında": 4553,
      "##baş": 4554,
      "götür": 4555,
      "kayık": 4556,
      "tabur": 4557,
      "topl": 4558,
      "çifti": 4559,
      "posta": 4560,
      "rafın": 4561,
      "uzaktaki": 4562,
      "bağlandı": 4563,
      "numar": 4564,
      "besliyor": 4565,
      "kasklı": 4566,
      "hastan": 4567,
      "binicilik": 4568,
      "##panak": 4569,
      "değiştir": 4570,
      "gran": 4571,
      "tram": 4572,
      "vinç": 4573,
      "##fte": 4574,
      "##bilir": 4575,
      "çorap": 4576,
      "bakarak": 4577,
      "arabasında": 4578,
      "oyuncusunun": 4579,
      "yapıyorlar": 4580,
      "resimler": 4581,
      "onların": 4582,
      "çalar": 4583,
      "mayo": 4584,
      "sergiliyor": 4585,
      "sahnede": 4586,
      "sandalyelerde": 4587,
      "dalgalı": 4588,
      "soğut": 4589,
      "lokanta": 4590,
      "baharat": 4591,
      "##erli": 4592,
      "göle": 4593,
      "masasına": 4594,
      "yapmış": 4595,
      "çimler": 4596,
      "köşedeki": 4597,
      "jetu": 4598,
      "yazılı": 4599,
      "yamaçtan": 4600,
      "kendine": 4601,
      "vitr": 4602,
      "ışığında": 4603,
      "ocakta": 4604,
      "bikini": 4605,
      "cupcakes": 4606,
      "konteyn": 4607,
      "lahana": 4608,
      "helikopter": 4609,
      "kumandanın": 4610,
      "##ıka": 4611,
      "##hn": 4612,
      "##irt": 4613,
      "##layıcı": 4614,
      "oturağı": 4615,
      "daldır": 4616,
      "##ides": 4617,
      "televizyona": 4618,
      "donmuş": 4619,
      "harf": 4620,
      "##geç": 4621,
      "satış": 4622,
      "bekliyorlar": 4623,
      "hakkında": 4624,
      "gerçekten": 4625,
      "koltuğa": 4626,
      "güvenlik": 4627,
      "del": 4628,
      "ham": 4629,
      "beyzbolda": 4630,
      "fırından": 4631,
      "elindeki": 4632,
      "yağışlı": 4633,
      "araçların": 4634,
      "onunki": 4635,
      "geldi": 4636,
      "karşısındaki": 4637,
      "çömeliyor": 4638,
      "##tıcısı": 4639,
      "cüzdan": 4640,
      "uğra": 4641,
      "##cuk": 4642,
      "karides": 4643,
      "trenler": 4644,
      "genel": 4645,
      "sörfü": 4646,
      "organ": 4647,
      "katlanmış": 4648,
      "kolunu": 4649,
      "görüntüler": 4650,
      "kütlesindeki": 4651,
      "kalkıyor": 4652,
      "izlediği": 4653,
      "benzeri": 4654,
      "ilerlemektedir": 4655,
      "sisli": 4656,
      "golf": 4657,
      "tramv": 4658,
      "hopar": 4659,
      "ola": 4660,
      "türü": 4661,
      "##mb": 4662,
      "##ubu": 4663,
      "sırada": 4664,
      "hayvanı": 4665,
      "düzine": 4666,
      "bardakta": 4667,
      "kağıda": 4668,
      "proj": 4669,
      "desen": 4670,
      "hasır": 4671,
      "sergileyen": 4672,
      "tipi": 4673,
      "hoparlör": 4674,
      "gur": 4675,
      "hed": 4676,
      "çam": 4677,
      "##din": 4678,
      "parke": 4679,
      "bant": 4680,
      "toplanan": 4681,
      "köpekleri": 4682,
      "açıldı": 4683,
      "görünür": 4684,
      "bisikletli": 4685,
      "ceph": 4686,
      "muzu": 4687,
      "planı": 4688,
      "katında": 4689,
      "seriliyor": 4690,
      "dağlarda": 4691,
      "uyarı": 4692,
      "harika": 4693,
      "salondaki": 4694,
      "dere": 4695,
      "ailesi": 4696,
      "hortum": 4697,
      "izgara": 4698,
      "yü": 4699,
      "##rika": 4700,
      "##ant": 4701,
      "atlet": 4702,
      "kaykayda": 4703,
      "ellerinde": 4704,
      "arabalı": 4705,
      "süre": 4706,
      "izin": 4707,
      "yükleme": 4708,
      "eğilir": 4709,
      "kortu": 4710,
      "tepesindeki": 4711,
      "yazılmış": 4712,
      "bitkisi": 4713,
      "makasla": 4714,
      "raylı": 4715,
      "sopasıyla": 4716,
      "boynu": 4717,
      "yukarıya": 4718,
      "ayağa": 4719,
      "şeridi": 4720,
      "yeşilliklerle": 4721,
      "limanında": 4722,
      "püskürt": 4723,
      "gösterilmektedir": 4724,
      "mü": 4725,
      "büyüyen": 4726,
      "kel": 4727,
      "kamyonlar": 4728,
      "uçurtmaları": 4729,
      "sandviçin": 4730,
      "hayvanları": 4731,
      "evi": 4732,
      "rafa": 4733,
      "küvete": 4734,
      "renklerle": 4735,
      "yedir": 4736,
      "sıkı": 4737,
      "poster": 4738,
      "tenekesi": 4739,
      "anahtar": 4740,
      "apart": 4741,
      "dan": 4742,
      "daya": 4743,
      "pe": 4744,
      "##yle": 4745,
      "##ac": 4746,
      "otlarda": 4747,
      "yalan": 4748,
      "##iyorlar": 4749,
      "yakındaki": 4750,
      "içindedir": 4751,
      "##meleri": 4752,
      "çöreği": 4753,
      "dağdan": 4754,
      "temel": 4755,
      "havaalanının": 4756,
      "dikd": 4757,
      "düzenlenmiş": 4758,
      "gelir": 4759,
      "standında": 4760,
      "göğüs": 4761,
      "fiyat": 4762,
      "çuk": 4763,
      "##yası": 4764,
      "oturduğu": 4765,
      "##uldu": 4766,
      "toplanıyor": 4767,
      "kayaklı": 4768,
      "kulenin": 4769,
      "sokaktaki": 4770,
      "bisikletini": 4771,
      "geçmek": 4772,
      "kaldırıyor": 4773,
      "##örtgen": 4774,
      "kulesinin": 4775,
      "zemini": 4776,
      "ışıklarla": 4777,
      "kitaplık": 4778,
      "üniforması": 4779,
      "musluk": 4780,
      "tekerlek": 4781,
      "kasabanın": 4782,
      "gölgeli": 4783,
      "yazısı": 4784,
      "ilginç": 4785,
      "çamaşır": 4786,
      "alkol": 4787,
      "cisim": 4788,
      "dikdörtgen": 4789,
      "fab": 4790,
      "ayarı": 4791,
      "kötü": 4792,
      "tabana": 4793,
      "sarılır": 4794,
      "kullanıl": 4795,
      "yüzlü": 4796,
      "aşağısında": 4797,
      "kravatta": 4798,
      "fırçalarken": 4799,
      "aydınlık": 4800,
      "burun": 4801,
      "ofiste": 4802,
      "halat": 4803,
      "yapışan": 4804,
      "yemeğini": 4805,
      "endüst": 4806,
      "toppings": 4807,
      "gag": 4808,
      "zev": 4809,
      "##laj": 4810,
      "##lip": 4811,
      "yaninda": 4812,
      "##mada": 4813,
      "alandaki": 4814,
      "kaput": 4815,
      "telefonlarında": 4816,
      "penceresi": 4817,
      "gösteri": 4818,
      "pistine": 4819,
      "ayaklı": 4820,
      "düşüyor": 4821,
      "dinlenir": 4822,
      "sağlıklı": 4823,
      "ahırın": 4824,
      "peçete": 4825,
      "ölç": 4826,
      "piyano": 4827,
      "kuv": 4828,
      "rad": 4829,
      "##mp": 4830,
      "##dum": 4831,
      "##vir": 4832,
      "oturması": 4833,
      "duruş": 4834,
      "tutulan": 4835,
      "yatar": 4836,
      "bakım": 4837,
      "##gie": 4838,
      "aşağıda": 4839,
      "öğelerle": 4840,
      "sandalyeleri": 4841,
      "izlemektedir": 4842,
      "gölgelik": 4843,
      "uçurumun": 4844,
      "kitabın": 4845,
      "çubu": 4846,
      "##bet": 4847,
      "##âh": 4848,
      "içme": 4849,
      "atılmış": 4850,
      "yakında": 4851,
      "tabanın": 4852,
      "yemiş": 4853,
      "telefonundan": 4854,
      "ordu": 4855,
      "##leyin": 4856,
      "anda": 4857,
      "##ilerini": 4858,
      "zeminin": 4859,
      "taşıyıcı": 4860,
      "portakallar": 4861,
      "dolaşır": 4862,
      "dönüyor": 4863,
      "seviyor": 4864,
      "halk": 4865,
      "izliyorlar": 4866,
      "tasvir": 4867,
      "boynunu": 4868,
      "serpilir": 4869,
      "yıld": 4870,
      "paylaşıyor": 4871,
      "mahalle": 4872,
      "hediye": 4873,
      "kuvvet": 4874,
      "şez": 4875,
      "##öz": 4876,
      "##arlı": 4877,
      "##isyon": 4878,
      "atları": 4879,
      "çeşidi": 4880,
      "boğ": 4881,
      "birbiri": 4882,
      "bakıyoruz": 4883,
      "elbisesi": 4884,
      "dağlık": 4885,
      "ışıkta": 4886,
      "televizyonlu": 4887,
      "koyar": 4888,
      "mahkeme": 4889,
      "yenmiş": 4890,
      "devek": 4891,
      "fırçalar": 4892,
      "panel": 4893,
      "kazak": 4894,
      "demetleri": 4895,
      "sundur": 4896,
      "ısırık": 4897,
      "söyleyen": 4898,
      "yabani": 4899,
      "alınan": 4900,
      "sahadaki": 4901,
      "apple": 4902,
      "güleryüz": 4903,
      "büfe": 4904,
      "tramvay": 4905,
      "şezl": 4906,
      "eg": 4907,
      "heye": 4908,
      "birini": 4909,
      "##lanın": 4910,
      "##liye": 4911,
      "kadına": 4912,
      "tuttur": 4913,
      "yakınlaş": 4914,
      "işçiler": 4915,
      "kıza": 4916,
      "kamyonunun": 4917,
      "sürer": 4918,
      "hayvanların": 4919,
      "meyveleri": 4920,
      "yiyiyor": 4921,
      "yiyip": 4922,
      "uyur": 4923,
      "göldeki": 4924,
      "mahkemeye": 4925,
      "veriyorlar": 4926,
      "##ülür": 4927,
      "pazarı": 4928,
      "tepsisinde": 4929,
      "balıkçı": 4930,
      "ısırıyor": 4931,
      "öğret": 4932,
      "töreninde": 4933,
      "dibinde": 4934,
      "##yaç": 4935,
      "##üsünün": 4936,
      "##ürüyor": 4937,
      "buket": 4938,
      "geçip": 4939,
      "kanada": 4940,
      "portre": 4941,
      "çantaları": 4942,
      "içerisinde": 4943,
      "boynuna": 4944,
      "yukarıdaki": 4945,
      "kasabada": 4946,
      "tabanında": 4947,
      "sahibi": 4948,
      "poşet": 4949,
      "güleryüzlü": 4950,
      "eli": 4951,
      "form": 4952,
      "raki": 4953,
      "ska": 4954,
      "ineği": 4955,
      "teb": 4956,
      "köy": 4957,
      "yapılır": 4958,
      "yolunu": 4959,
      "bilgisayarlarda": 4960,
      "kızla": 4961,
      "başlı": 4962,
      "kıy": 4963,
      "sallan": 4964,
      "##boarda": 4965,
      "bakıyorlar": 4966,
      "plakasında": 4967,
      "teknelerin": 4968,
      "asılır": 4969,
      "ağaçlarının": 4970,
      "dolaplarla": 4971,
      "çizilmiş": 4972,
      "avru": 4973,
      "şehre": 4974,
      "geriye": 4975,
      "içeride": 4976,
      "##riyel": 4977,
      "endüstriyel": 4978,
      "ces": 4979,
      "##res": 4980,
      "##cına": 4981,
      "vardı": 4982,
      "ağaçlık": 4983,
      "oyuncular": 4984,
      "biskü": 4985,
      "bisikletler": 4986,
      "kanal": 4987,
      "duvarının": 4988,
      "kuğu": 4989,
      "doğranmış": 4990,
      "aşırı": 4991,
      "koyunların": 4992,
      "kollarını": 4993,
      "görüntüsüdür": 4994,
      "kabak": 4995,
      "yarıya": 4996,
      "ediyordu": 4997,
      "döndü": 4998,
      "ise": 4999,
      "yapraklar": 5000,
      "tablosu": 5001,
      "düşün": 5002,
      "karışımı": 5003,
      "tıraş": 5004,
      "blendır": 5005,
      "dava": 5006,
      "beraber": 5007,
      "maddeleri": 5008,
      "höyük": 5009,
      "stadyum": 5010,
      "olgunlaşmış": 5011,
      "şaşkın": 5012,
      "resmed": 5013,
      "##yucu": 5014,
      "##sin": 5015,
      "##uşu": 5016,
      "##ime": 5017,
      "arabasına": 5018,
      "üçlü": 5019,
      "evdeki": 5020,
      "aynasının": 5021,
      "yüzünün": 5022,
      "istasyonun": 5023,
      "tavada": 5024,
      "tavşan": 5025,
      "kafasına": 5026,
      "monitörün": 5027,
      "ıspanak": 5028,
      "yarışan": 5029,
      "makinesinin": 5030,
      "sarma": 5031,
      "platformunda": 5032,
      "tepsiler": 5033,
      "dergi": 5034,
      "dokunan": 5035,
      "sabun": 5036,
      "yeşillikler": 5037,
      "seyrediyor": 5038,
      "püresi": 5039,
      "yüzer": 5040,
      "şezlong": 5041,
      "nak": 5042,
      "stre": 5043,
      "##ama": 5044,
      "##şaf": 5045,
      "##eter": 5046,
      "banyoya": 5047,
      "tepsinin": 5048,
      "giyim": 5049,
      "kamyona": 5050,
      "##dirir": 5051,
      "tarafına": 5052,
      "pislik": 5053,
      "pistlerde": 5054,
      "##ick": 5055,
      "nehirden": 5056,
      "çarşaf": 5057,
      "standı": 5058,
      "havuzda": 5059,
      "döküyor": 5060,
      "destek": 5061,
      "kızıl": 5062,
      "şekillendirilmiş": 5063,
      "kemerli": 5064,
      "keyf": 5065,
      "heyecan": 5066,
      "avrupa": 5067,
      "dilde": 5068,
      "pu": 5069,
      "panda": 5070,
      "zıp": 5071,
      "##menin": 5072,
      "##mesine": 5073,
      "##fa": 5074,
      "##lecek": 5075,
      "##ilmek": 5076,
      "yoldaki": 5077,
      "oynar": 5078,
      "başlık": 5079,
      "duvarına": 5080,
      "izleyic": 5081,
      "olması": 5082,
      "##manı": 5083,
      "doldurdu": 5084,
      "kabuk": 5085,
      "##lerdeki": 5086,
      "süp": 5087,
      "tablolar": 5088,
      "mağazada": 5089,
      "denizde": 5090,
      "##ustik": 5091,
      "müzede": 5092,
      "atlamak": 5093,
      "görevli": 5094,
      "peçet": 5095,
      "çömelmiş": 5096,
      "tasarlanmış": 5097,
      "etkileş": 5098,
      "##ding": 5099,
      "##ha": 5100,
      "kalır": 5101,
      "##uyordu": 5102,
      "içmek": 5103,
      "##one": 5104,
      "##üye": 5105,
      "##uval": 5106,
      "işçi": 5107,
      "doug": 5108,
      "göre": 5109,
      "kutular": 5110,
      "sandık": 5111,
      "##ilerek": 5112,
      "portakallı": 5113,
      "temalı": 5114,
      "patenci": 5115,
      "koşar": 5116,
      "avuç": 5117,
      "verirken": 5118,
      "fillerden": 5119,
      "dinlenen": 5120,
      "doku": 5121,
      "toplanırlar": 5122,
      "gerçekleştir": 5123,
      "kuyru": 5124,
      "töreni": 5125,
      "sistemi": 5126,
      "zarif": 5127,
      "##lamaktadır": 5128,
      "##ikat": 5129,
      "karak": 5130,
      "topunun": 5131,
      "bakkal": 5132,
      "birbirlerini": 5133,
      "çıkarı": 5134,
      "dalgada": 5135,
      "gözü": 5136,
      "etrafına": 5137,
      "oğlu": 5138,
      "basit": 5139,
      "gemisi": 5140,
      "bırakıyor": 5141,
      "çölde": 5142,
      "mesafedeki": 5143,
      "ikinci": 5144,
      "zevk": 5145,
      "rustik": 5146,
      "##sından": 5147,
      "##ğunda": 5148,
      "##anas": 5149,
      "##eviz": 5150,
      "erkeğe": 5151,
      "tabakın": 5152,
      "bağlanır": 5153,
      "zeminler": 5154,
      "pişiren": 5155,
      "havluyla": 5156,
      "sürah": 5157,
      "asyalı": 5158,
      "ekranına": 5159,
      "çekmec": 5160,
      "pilot": 5161,
      "koleksiyonu": 5162,
      "çorbası": 5163,
      "for": 5164,
      "od": 5165,
      "sağa": 5166,
      "tüp": 5167,
      "##ling": 5168,
      "##yum": 5169,
      "kaide": 5170,
      "##les": 5171,
      "##lerce": 5172,
      "##ıran": 5173,
      "insanı": 5174,
      "##opik": 5175,
      "bilgi": 5176,
      "doldu": 5177,
      "ellerini": 5178,
      "beyzbolu": 5179,
      "açılan": 5180,
      "pasp": 5181,
      "konv": 5182,
      "kaseden": 5183,
      "boo": 5184,
      "oyuncaklarla": 5185,
      "plakada": 5186,
      "pozisyon": 5187,
      "eğri": 5188,
      "zemininde": 5189,
      "şapkasındaki": 5190,
      "komp": 5191,
      "hangar": 5192,
      "güller": 5193,
      "karnab": 5194,
      "kolajı": 5195,
      "bisküvi": 5196,
      "kaşı": 5197,
      "armut": 5198,
      "açar": 5199,
      "telefonlarına": 5200,
      "sürülen": 5201,
      "uçakları": 5202,
      "konfer": 5203,
      "sırası": 5204,
      "evrak": 5205,
      "takımında": 5206,
      "yağıyor": 5207,
      "peyniri": 5208,
      "besleyici": 5209,
      "mumları": 5210,
      "yumruk": 5211,
      "kayalıkta": 5212,
      "kürk": 5213,
      "##layın": 5214,
      "sanatsal": 5215,
      "başkası": 5216,
      "stadyumda": 5217,
      "direğine": 5218,
      "karnabahar": 5219,
      "##ydı": 5220,
      "##kan": 5221,
      "yandan": 5222,
      "trende": 5223,
      "trenleri": 5224,
      "yollarında": 5225,
      "teki": 5226,
      "giysi": 5227,
      "sarım": 5228,
      "sola": 5229,
      "##usal": 5230,
      "serilir": 5231,
      "bagajla": 5232,
      "kapılar": 5233,
      "##lemeye": 5234,
      "sörfçüsü": 5235,
      "yakalamaktadır": 5236,
      "kumandayı": 5237,
      "mobilyalı": 5238,
      "çalışıyorlar": 5239,
      "aydınlandı": 5240,
      "metr": 5241,
      "merdivenlerde": 5242,
      "domatesli": 5243,
      "grafit": 5244,
      "göğs": 5245,
      "the": 5246,
      "hotdog": 5247,
      "sirk": 5248,
      "abd": 5249,
      "geyik": 5250,
      "##hnut": 5251,
      "çukur": 5252,
      "rakib": 5253,
      "street": 5254,
      "##ihi": 5255,
      "içerken": 5256,
      "aran": 5257,
      "köpeğini": 5258,
      "tropik": 5259,
      "tarihi": 5260,
      "başpar": 5261,
      "dışkı": 5262,
      "çekmek": 5263,
      "sürg": 5264,
      "sürmek": 5265,
      "taraftan": 5266,
      "koyunları": 5267,
      "kolunda": 5268,
      "şeyleri": 5269,
      "görüntülenen": 5270,
      "bıçaklı": 5271,
      "renklerde": 5272,
      "merdivenlerden": 5273,
      "dayanıyor": 5274,
      "höyüğ": 5275,
      "karayolunda": 5276,
      "süslemeleri": 5277,
      "muhtem": 5278,
      "yıldız": 5279,
      "doughnut": 5280,
      "##os": 5281,
      "##ster": 5282,
      "üstteki": 5283,
      "dos": 5284,
      "yerken": 5285,
      "parasa": 5286,
      "çiftlikte": 5287,
      "güv": 5288,
      "boz": 5289,
      "edilmişti": 5290,
      "anıt": 5291,
      "rafının": 5292,
      "küvette": 5293,
      "kabuğu": 5294,
      "gıdalarla": 5295,
      "yapıştır": 5296,
      "benziyor": 5297,
      "benzersiz": 5298,
      "minibüsün": 5299,
      "geçişi": 5300,
      "dağılmış": 5301,
      "voleybol": 5302,
      "##ücu": 5303,
      "##dele": 5304,
      "otlu": 5305,
      "atma": 5306,
      "yoluna": 5307,
      "##yantal": 5308,
      "bakmaktadır": 5309,
      "parma": 5310,
      "oryantal": 5311,
      "paslanmış": 5312,
      "lavabosunda": 5313,
      "konur": 5314,
      "binaları": 5315,
      "yüzleri": 5316,
      "kayaya": 5317,
      "etrafındaki": 5318,
      "kapısında": 5319,
      "örme": 5320,
      "akan": 5321,
      "kavşağında": 5322,
      "salatalık": 5323,
      "düzlemin": 5324,
      "çantasının": 5325,
      "girişinde": 5326,
      "kurutma": 5327,
      "shirt": 5328,
      "porsiyon": 5329,
      "şeridinde": 5330,
      "siluet": 5331,
      "daldırma": 5332,
      "sundurma": 5333,
      "boogie": 5334,
      "muhtemelen": 5335,
      "fu": 5336,
      "kışın": 5337,
      "##ib": 5338,
      "##gı": 5339,
      "##tesinde": 5340,
      "kate": 5341,
      "kaykayına": 5342,
      "elleri": 5343,
      "görmek": 5344,
      "sürül": 5345,
      "##iğini": 5346,
      "yataktaki": 5347,
      "snowboarda": 5348,
      "yarat": 5349,
      "kapılı": 5350,
      "##testo": 5351,
      "şapkadaki": 5352,
      "bulutlarla": 5353,
      "manzarasına": 5354,
      "yelp": 5355,
      "protesto": 5356,
      "perdeler": 5357,
      "tünel": 5358,
      "battaniyenin": 5359,
      "aydınlatmalı": 5360,
      "hayat": 5361,
      "öpüş": 5362,
      "ezmesi": 5363,
      "bölünmüş": 5364,
      "granit": 5365,
      "tutturulmuş": 5366,
      "konferans": 5367,
      "fın": 5368,
      "hede": 5369,
      "krak": 5370,
      "##indan": 5371,
      "sim": 5372,
      "köpekli": 5373,
      "uçurmaya": 5374,
      "telefonları": 5375,
      "fırına": 5376,
      "vermeye": 5377,
      "eğildi": 5378,
      "rafında": 5379,
      "kafasında": 5380,
      "kavşağı": 5381,
      "oynamakta": 5382,
      "klavyesinde": 5383,
      "sergilenmektedir": 5384,
      "yolculu": 5385,
      "hızla": 5386,
      "kızartmasıyla": 5387,
      "rahatla": 5388,
      "getiren": 5389,
      "minder": 5390,
      "konser": 5391,
      "kuruldu": 5392,
      "sarkan": 5393,
      "fındık": 5394,
      "dün": 5395,
      "yu": 5396,
      "##ette": 5397,
      "##eyör": 5398,
      "oturanlar": 5399,
      "tutucu": 5400,
      "vardir": 5401,
      "topları": 5402,
      "kamusal": 5403,
      "motosikletinde": 5404,
      "fotoğrafçı": 5405,
      "kuşların": 5406,
      "##tiv": 5407,
      "yürüdüğü": 5408,
      "takımının": 5409,
      "gölden": 5410,
      "bulutlar": 5411,
      "pişmemiş": 5412,
      "sürüyordu": 5413,
      "girer": 5414,
      "karıştırıcı": 5415,
      "tekmeleyen": 5416,
      "sekiz": 5417,
      "sınır": 5418,
      "konveyör": 5419,
      "kaşığı": 5420,
      "katedra": 5421,
      "hen": 5422,
      "##ita": 5423,
      "##erin": 5424,
      "##ündeki": 5425,
      "yapıl": 5426,
      "banyodaki": 5427,
      "alç": 5428,
      "otobüsünün": 5429,
      "kalmış": 5430,
      "soft": 5431,
      "kamyonla": 5432,
      "okum": 5433,
      "koni": 5434,
      "sandalyesinde": 5435,
      "çıkmaya": 5436,
      "vazoların": 5437,
      "istiyor": 5438,
      "gözük": 5439,
      "şekilli": 5440,
      "süvet": 5441,
      "gıdaları": 5442,
      "aletlerle": 5443,
      "saklanan": 5444,
      "kayaklardaki": 5445,
      "kris": 5446,
      "##idin": 5447,
      "tavandan": 5448,
      "...": 5449,
      "kimse": 5450,
      "aranj": 5451,
      "sürgülü": 5452,
      "güveç": 5453,
      "cat": 5454,
      "olu": 5455,
      "çağ": 5456,
      "##tör": 5457,
      "biranın": 5458,
      "kalıyor": 5459,
      "yanar": 5460,
      "durakta": 5461,
      "indir": 5462,
      "çimdeki": 5463,
      "yemekten": 5464,
      "lavaboyu": 5465,
      "tabaktan": 5466,
      "olmadan": 5467,
      "ekst": 5468,
      "çevrilmiş": 5469,
      "istasyonundan": 5470,
      "denge": 5471,
      "şeyi": 5472,
      "uyu": 5473,
      "kaba": 5474,
      "kumandası": 5475,
      "fırçaları": 5476,
      "harekete": 5477,
      "arkadaşlar": 5478,
      "reklamı": 5479,
      "ardında": 5480,
      "neden": 5481,
      "vücu": 5482,
      "yıp": 5483,
      "##kes": 5484,
      "##hbet": 5485,
      "##liğ": 5486,
      "aren": 5487,
      "insanlardan": 5488,
      "uçururken": 5489,
      "dolup": 5490,
      "ayıyı": 5491,
      "sohbet": 5492,
      "kasesi": 5493,
      "##çısı": 5494,
      "ant": 5495,
      "meyvelerin": 5496,
      "konuşma": 5497,
      "eğil": 5498,
      "banklar": 5499,
      "kitapla": 5500,
      "raflı": 5501,
      "havaalanındaki": 5502,
      "merdivenle": 5503,
      "çaydan": 5504,
      "biberli": 5505,
      "kentin": 5506,
      "seyrek": 5507,
      "otoyolun": 5508,
      "seyrederken": 5509,
      "vakit": 5510,
      "eşiğinde": 5511,
      "şarkı": 5512,
      "kıyılmış": 5513,
      "keyfini": 5514,
      "odun": 5515,
      "hedef": 5516,
      "dam": 5517,
      "wit": 5518,
      "yıka": 5519,
      "##rakta": 5520,
      "##çının": 5521,
      "içec": 5522,
      "teh": 5523,
      "uçar": 5524,
      "binayı": 5525,
      "##iminde": 5526,
      "tart": 5527,
      "görüyor": 5528,
      "pizzaya": 5529,
      "tepesi": 5530,
      "ağaçlara": 5531,
      "tabaklarla": 5532,
      "çimenleri": 5533,
      "##bot": 5534,
      "gülümseme": 5535,
      "eşek": 5536,
      "yığının": 5537,
      "sırtına": 5538,
      "yenilen": 5539,
      "tere": 5540,
      "köşesindeki": 5541,
      "atışı": 5542,
      "direkte": 5543,
      "asfada": 5544,
      "yukarıda": 5545,
      "çerçeve": 5546,
      "yıkan": 5547,
      "kurutulmuş": 5548,
      "fırtına": 5549,
      "rakam": 5550,
      "jap": 5551,
      "ziy": 5552,
      "birleş": 5553,
      "duvarla": 5554,
      "yiyeceklerden": 5555,
      "çalılık": 5556,
      "kayalarda": 5557,
      "bagajları": 5558,
      "yetiştir": 5559,
      "monitörlü": 5560,
      "besleyic": 5561,
      "sandalyelerle": 5562,
      "kediler": 5563,
      "paketlenmiş": 5564,
      "uyuyordu": 5565,
      "figürin": 5566,
      "koruyucu": 5567,
      "sürahisi": 5568,
      "ziyaret": 5569,
      "diyor": 5570,
      "lük": 5571,
      "tük": 5572,
      "tuş": 5573,
      "vüc": 5574,
      "çıl": 5575,
      "##art": 5576,
      "durağına": 5577,
      "uçağının": 5578,
      "oyununun": 5579,
      "yapacak": 5580,
      "üstten": 5581,
      "siv": 5582,
      "bilgisayarını": 5583,
      "uzay": 5584,
      "pizzalar": 5585,
      "ayıları": 5586,
      "yakınındadır": 5587,
      "bisikletçiler": 5588,
      "arkaya": 5589,
      "yapıyordu": 5590,
      "yapanlar": 5591,
      "kirte": 5592,
      "bagajda": 5593,
      "yiyerek": 5594,
      "örn": 5595,
      "peynirle": 5596,
      "merdivenlerin": 5597,
      "içeriği": 5598,
      "çantasıyla": 5599,
      "kalabalığa": 5600,
      "garajda": 5601,
      "tozlu": 5602,
      "afiş": 5603,
      "hücre": 5604,
      "vücut": 5605,
      "çılgın": 5606,
      "ih": 5607,
      "sm": 5608,
      "vası": 5609,
      "yayı": 5610,
      "##htı": 5611,
      "kümesi": 5612,
      "köfte": 5613,
      "santa": 5614,
      "uçurtmalarını": 5615,
      "taraftaki": 5616,
      "penceresinde": 5617,
      "serin": 5618,
      "meyvelerle": 5619,
      "plakaya": 5620,
      "kolları": 5621,
      "tahtaya": 5622,
      "ananas": 5623,
      "raflarda": 5624,
      "şapkada": 5625,
      "##tasıyla": 5626,
      "kabuklu": 5627,
      "yağışı": 5628,
      "rampasının": 5629,
      "biniyorlardı": 5630,
      "sokağındaki": 5631,
      "sandalyedeki": 5632,
      "tatil": 5633,
      "marina": 5634,
      "süslüyor": 5635,
      "kalemle": 5636,
      "battaniyede": 5637,
      "hidrantına": 5638,
      "platformunun": 5639,
      "halıda": 5640,
      "rekabet": 5641,
      "yazıcı": 5642,
      "havalimanın": 5643,
      "döşenmiştir": 5644,
      "ardından": 5645,
      "malzemeler": 5646,
      "teneke": 5647,
      "tebrik": 5648,
      "yelpaz": 5649,
      "tereya": 5650,
      "lüks": 5651,
      "bon": 5652,
      "kâ": 5653,
      "lob": 5654,
      "suv": 5655,
      "##resi": 5656,
      "tutup": 5657,
      "biniş": 5658,
      "çocukla": 5659,
      "çocuklu": 5660,
      "işaretle": 5661,
      "duvarında": 5662,
      "binalarda": 5663,
      "hayvanla": 5664,
      "keskin": 5665,
      "bag": 5666,
      "yolcularla": 5667,
      "doldurulur": 5668,
      "bağlayan": 5669,
      "kafeter": 5670,
      "kızartılmış": 5671,
      "çarpmaya": 5672,
      "sprey": 5673,
      "tatlılar": 5674,
      "çantasına": 5675,
      "##cks": 5676,
      "itfaiyeci": 5677,
      "parçasına": 5678,
      "krom": 5679,
      "lego": 5680,
      "sahib": 5681,
      "koşuşturan": 5682,
      "kılıf": 5683,
      "süpür": 5684,
      "##bin": 5685,
      "##anya": 5686,
      "##ilmesi": 5687,
      "binmeye": 5688,
      "köpük": 5689,
      "beyzbola": 5690,
      "işaretine": 5691,
      "kutusuna": 5692,
      "konileri": 5693,
      "çalıyor": 5694,
      "koyunu": 5695,
      "turta": 5696,
      "ışıkla": 5697,
      "bitkinin": 5698,
      "sonb": 5699,
      "sandalyelerin": 5700,
      "bitkilerle": 5701,
      "herkes": 5702,
      "yenile": 5703,
      "yaslanıyor": 5704,
      "isk": 5705,
      "lambalar": 5706,
      "tekerle": 5707,
      "gelenek": 5708,
      "etiketi": 5709,
      "öğrenc": 5710,
      "öğrenci": 5711,
      "uzatır": 5712,
      "rıhtı": 5713,
      "üfleyen": 5714,
      "gömleği": 5715,
      "sehpanın": 5716,
      "festiv": 5717,
      "devekuşu": 5718,
      "başparmak": 5719,
      "dosya": 5720,
      "yıpranmış": 5721,
      "rıhtıma": 5722,
      "jö": 5723,
      "os": 5724,
      "pug": 5725,
      "yuva": 5726,
      "##nav": 5727,
      "##tıyor": 5728,
      "##ceği": 5729,
      "kapları": 5730,
      "kuşat": 5731,
      "penceresine": 5732,
      "asılmış": 5733,
      "şarapla": 5734,
      "uzaklaşıyor": 5735,
      "bayanlar": 5736,
      "karşıya": 5737,
      "ekranlı": 5738,
      "koşum": 5739,
      "kadehi": 5740,
      "dururlar": 5741,
      "pengu": 5742,
      "kremalı": 5743,
      "tadımı": 5744,
      "düzgünce": 5745,
      "koşuşturuyor": 5746,
      "eylem": 5747,
      "kaplamalı": 5748,
      "antil": 5749,
      "vasıtasıyla": 5750,
      "suş": 5751,
      "sunu": 5752,
      "tuval": 5753,
      "şö": 5754,
      "##ni": 5755,
      "##ele": 5756,
      "##arp": 5757,
      "##ers": 5758,
      "##dem": 5759,
      "##delen": 5760,
      "##laması": 5761,
      "oturmak": 5762,
      "atarken": 5763,
      "parkı": 5764,
      "tenli": 5765,
      "bandı": 5766,
      "##dıran": 5767,
      "pizzayı": 5768,
      "tahtasından": 5769,
      "kuşlarla": 5770,
      "günün": 5771,
      "kasenin": 5772,
      "kesmeye": 5773,
      "kapıları": 5774,
      "kapısına": 5775,
      "diji": 5776,
      "isim": 5777,
      "halindeki": 5778,
      "sıralanmıştır": 5779,
      "gövdesini": 5780,
      "bölgesi": 5781,
      "bayraklar": 5782,
      "kokluyor": 5783,
      "canlı": 5784,
      "güvertede": 5785,
      "uğraş": 5786,
      "zıplayan": 5787,
      "japon": 5788,
      "geleneksel": 5789,
      "dijital": 5790,
      "adı": 5791,
      "kop": 5792,
      "pel": 5793,
      "##sunu": 5794,
      "##wn": 5795,
      "oyununu": 5796,
      "grupta": 5797,
      "kaplan": 5798,
      "##lenmesi": 5799,
      "okur": 5800,
      "pistlerden": 5801,
      "dalgalanan": 5802,
      "ışıklarıyla": 5803,
      "çaliş": 5804,
      "eşarp": 5805,
      "plakalar": 5806,
      "bağlar": 5807,
      "batarken": 5808,
      "kafede": 5809,
      "yalnızca": 5810,
      "besleme": 5811,
      "heykelin": 5812,
      "çevresindeki": 5813,
      "ayarlanır": 5814,
      "palyaç": 5815,
      "parçasının": 5816,
      "dolabı": 5817,
      "bunlardan": 5818,
      "tutacağı": 5819,
      "üss": 5820,
      "karakter": 5821,
      "jöle": 5822,
      "antilop": 5823,
      "go": 5824,
      "kör": 5825,
      "şub": 5826,
      "##alar": 5827,
      "##unt": 5828,
      "adama": 5829,
      "##emli": 5830,
      "##örü": 5831,
      "yaptığı": 5832,
      "parkmet": 5833,
      "toprakta": 5834,
      "elleriyle": 5835,
      "arkadan": 5836,
      "çekti": 5837,
      "duvarlarla": 5838,
      "rengi": 5839,
      "board": 5840,
      "caddesinin": 5841,
      "kaldırıma": 5842,
      "evler": 5843,
      "aynasına": 5844,
      "kirm": 5845,
      "patina": 5846,
      "ceketin": 5847,
      "yelekli": 5848,
      "yaklaşırken": 5849,
      "gölgesi": 5850,
      "iplik": 5851,
      "şekerli": 5852,
      "söylüyor": 5853,
      "mesafeye": 5854,
      "aptal": 5855,
      "askısı": 5856,
      "defter": 5857,
      "kuvvetleri": 5858,
      "palyaço": 5859,
      "damp": 5860,
      "ti": 5861,
      "şah": 5862,
      "beden": 5863,
      "gruplar": 5864,
      "sipar": 5865,
      "kaykayıyla": 5866,
      "dışarda": 5867,
      "tabaklı": 5868,
      "kutlama": 5869,
      "esn": 5870,
      "evli": 5871,
      "yürüdü": 5872,
      "vazonun": 5873,
      "ışıklarında": 5874,
      "yolcuların": 5875,
      "rafları": 5876,
      "yoğ": 5877,
      "motel": 5878,
      "yüksekten": 5879,
      "makaslar": 5880,
      "yastığı": 5881,
      "araçları": 5882,
      "koşucu": 5883,
      "çatalın": 5884,
      "sahnesinde": 5885,
      "yansıtan": 5886,
      "hafifçe": 5887,
      "yemeğinin": 5888,
      "çerçevesi": 5889,
      "kafesin": 5890,
      "cipsi": 5891,
      "roma": 5892,
      "ekipmanı": 5893,
      "afrika": 5894,
      "kereviz": 5895,
      "uyanık": 5896,
      "omzunun": 5897,
      "günbatımı": 5898,
      "gurme": 5899,
      "ihti": 5900,
      "penguen": 5901,
      "kirmizi": 5902,
      "patinaj": 5903,
      "sipariş": 5904,
      "pr": 5905,
      "yuv": 5906,
      "##ali": 5907,
      "##süz": 5908,
      "##lediği": 5909,
      "##eki": 5910,
      "karaya": 5911,
      "elmanın": 5912,
      "gec": 5913,
      "##lüğ": 5914,
      "duvardan": 5915,
      "kutudan": 5916,
      "##ros": 5917,
      "kireç": 5918,
      "yatağına": 5919,
      "yatağının": 5920,
      "yaras": 5921,
      "pastaya": 5922,
      "şarj": 5923,
      "monitörünün": 5924,
      "besleniyor": 5925,
      "gövdesinde": 5926,
      "bariy": 5927,
      "yaklaşık": 5928,
      "gemide": 5929,
      "graff": 5930,
      "içiyorlar": 5931,
      "eğimden": 5932,
      "davran": 5933,
      "sütun": 5934,
      "geçiren": 5935,
      "tablası": 5936,
      "çekmece": 5937,
      "ovada": 5938,
      "zebrası": 5939,
      "numaralı": 5940,
      "organize": 5941,
      "apartman": 5942,
      "süveter": 5943,
      "suşi": 5944,
      "peluş": 5945,
      "ete": 5946,
      "hip": 5947,
      "hint": 5948,
      "lab": 5949,
      "zam": 5950,
      "çır": 5951,
      "##rek": 5952,
      "##üd": 5953,
      "##üncü": 5954,
      "##ulmaktadır": 5955,
      "##ağından": 5956,
      "binme": 5957,
      "grupları": 5958,
      "bilgisayarlarında": 5959,
      "gören": 5960,
      "yemeklerle": 5961,
      "##eğinin": 5962,
      "altındadır": 5963,
      "kuşla": 5964,
      "çeşme": 5965,
      "##lıkla": 5966,
      "botu": 5967,
      "yiyecekle": 5968,
      "kaldıran": 5969,
      "planında": 5970,
      "plandaki": 5971,
      "dalgaların": 5972,
      "dişi": 5973,
      "eğilerek": 5974,
      "şeyle": 5975,
      "koydu": 5976,
      "##gele": 5977,
      "savan": 5978,
      "kalemin": 5979,
      "mağazasında": 5980,
      "hatları": 5981,
      "bırakır": 5982,
      "kıvır": 5983,
      "nehri": 5984,
      "silü": 5985,
      "çıkıntıya": 5986,
      "dikkatle": 5987,
      "yükselt": 5988,
      "sessiz": 5989,
      "kağıdına": 5990,
      "delta": 5991,
      "##siniz": 5992,
      "doughnuts": 5993,
      "tartış": 5994,
      "kafeterya": 5995,
      "feri": 5996,
      "lar": 5997,
      "sem": 5998,
      "tık": 5999,
      "tamp": 6000,
      "ök": 6001,
      "##ekli": 6002,
      "maske": 6003,
      "elinden": 6004,
      "kızak": 6005,
      "telefonun": 6006,
      "ağaçla": 6007,
      "geçerek": 6008,
      "kutluyor": 6009,
      "çektir": 6010,
      "duvarlarda": 6011,
      "kenarı": 6012,
      "pody": 6013,
      "gökdelen": 6014,
      "birbirinden": 6015,
      "frizbe": 6016,
      "çitle": 6017,
      "bagajlarını": 6018,
      "manken": 6019,
      "uygun": 6020,
      "kağıtları": 6021,
      "sebzelerden": 6022,
      "dikey": 6023,
      "dikiliyor": 6024,
      "kütlesine": 6025,
      "dükkanı": 6026,
      "pişiriliyor": 6027,
      "satın": 6028,
      "tamir": 6029,
      "otlıyorlar": 6030,
      "bayrakları": 6031,
      "çantasını": 6032,
      "ısıran": 6033,
      "geçiriyor": 6034,
      "sıçrama": 6035,
      "malzemelerle": 6036,
      "kesiştiği": 6037,
      "##başı": 6038,
      "damperli": 6039,
      "ast": 6040,
      "blu": 6041,
      "ilan": 6042,
      "ifa": 6043,
      "##ücü": 6044,
      "##var": 6045,
      "##çlı": 6046,
      "otlatıyor": 6047,
      "##ırıyor": 6048,
      "atlarda": 6049,
      "tabağının": 6050,
      "sub": 6051,
      "saf": 6052,
      "oynad": 6053,
      "saatle": 6054,
      "parka": 6055,
      "başlığı": 6056,
      "arkası": 6057,
      "raketinde": 6058,
      "oyuncaklar": 6059,
      "oyuncakla": 6060,
      "salladı": 6061,
      "bagajı": 6062,
      "merak": 6063,
      "aynadaki": 6064,
      "bağlanan": 6065,
      "yastı": 6066,
      "kullanıyorlar": 6067,
      "ısın": 6068,
      "dikiş": 6069,
      "kilit": 6070,
      "kalemlerinde": 6071,
      "direksiyon": 6072,
      "çöker": 6073,
      "yapışıyor": 6074,
      "yapışmış": 6075,
      "geziniyor": 6076,
      "havuzunda": 6077,
      "türde": 6078,
      "memur": 6079,
      "bırakan": 6080,
      "gazet": 6081,
      "imz": 6082,
      "seyret": 6083,
      "ahırda": 6084,
      "yakınlarındaki": 6085,
      "gölette": 6086,
      "belirten": 6087,
      "che": 6088,
      "iğne": 6089,
      "gagalı": 6090,
      "rahatlatıcı": 6091,
      "olup": 6092,
      "yığınının": 6093,
      "ifade": 6094,
      "hor": 6095,
      "muş": 6096,
      "mim": 6097,
      "##ai": 6098,
      "##miyor": 6099,
      "##ska": 6100,
      "##çh": 6101,
      "##ene": 6102,
      "##unan": 6103,
      "teçh": 6104,
      "kişiyi": 6105,
      "arnav": 6106,
      "işlet": 6107,
      "işlem": 6108,
      "oynarlar": 6109,
      "elin": 6110,
      "açılı": 6111,
      "yerindeki": 6112,
      "yemekle": 6113,
      "başladı": 6114,
      "fotoğrafları": 6115,
      "gülen": 6116,
      "uzunca": 6117,
      "caddesine": 6118,
      "sallarken": 6119,
      "plana": 6120,
      "çıkmış": 6121,
      "snowboardlu": 6122,
      "takımları": 6123,
      "kayalarla": 6124,
      "asma": 6125,
      "boşal": 6126,
      "taşıt": 6127,
      "bardaklar": 6128,
      "portakalın": 6129,
      "portakallarla": 6130,
      "şeyin": 6131,
      "şişesinin": 6132,
      "havaalanına": 6133,
      "ediyorlar": 6134,
      "oluşur": 6135,
      "yenilmiş": 6136,
      "araçlarla": 6137,
      "##otik": 6138,
      "diken": 6139,
      "koltuklu": 6140,
      "sobanın": 6141,
      "içermektedir": 6142,
      "kulübe": 6143,
      "geçerler": 6144,
      "torbanın": 6145,
      "##ood": 6146,
      "burnu": 6147,
      "lokma": 6148,
      "pors": 6149,
      "teslimat": 6150,
      "ısıtıcısı": 6151,
      "resmedilmiştir": 6152,
      "alçak": 6153,
      "smok": 6154,
      "graffiti": 6155,
      "teçhiz": 6156,
      "arnavut": 6157,
      "ele": 6158,
      "ileri": 6159,
      "rob": 6160,
      "zır": 6161,
      "##mas": 6162,
      "##ski": 6163,
      "##ire": 6164,
      "##ash": 6165,
      "##illa": 6166,
      "##lerek": 6167,
      "oturt": 6168,
      "inmek": 6169,
      "kayn": 6170,
      "kaymaya": 6171,
      "##eyin": 6172,
      "##üsüne": 6173,
      "banka": 6174,
      "sahayı": 6175,
      "##elenin": 6176,
      "almaktadır": 6177,
      "üstündedir": 6178,
      "tezgahları": 6179,
      "lavabolu": 6180,
      "kuşa": 6181,
      "kumdaki": 6182,
      "##usunda": 6183,
      "eve": 6184,
      "##lıyordu": 6185,
      "çıkarken": 6186,
      "plakasına": 6187,
      "tahtalarının": 6188,
      "kulesine": 6189,
      "##ilerinin": 6190,
      "plakaları": 6191,
      "jeti": 6192,
      "çiziyor": 6193,
      "seven": 6194,
      "spat": 6195,
      "platforma": 6196,
      "bacaklarında": 6197,
      "çatıda": 6198,
      "bezel": 6199,
      "ekipmanları": 6200,
      "dengeler": 6201,
      "battaniyeye": 6202,
      "seksi": 6203,
      "odaklanan": 6204,
      "kanadı": 6205,
      "kesici": 6206,
      "peşinde": 6207,
      "projek": 6208,
      "fabrik": 6209,
      "paspas": 6210,
      "tüket": 6211,
      "iskelenin": 6212,
      "ocağı": 6213,
      "sk": 6214,
      "süz": 6215,
      "ötesinde": 6216,
      "##nit": 6217,
      "##yarak": 6218,
      "##ron": 6219,
      "##meliyor": 6220,
      "##vd": 6221,
      "otları": 6222,
      "##letler": 6223,
      "##ıyorlar": 6224,
      "yakalı": 6225,
      "arasına": 6226,
      "çocukların": 6227,
      "alanından": 6228,
      "sahası": 6229,
      "işada": 6230,
      "##suit": 6231,
      "tekmeliyor": 6232,
      "çoklu": 6233,
      "tezgaha": 6234,
      "motosikletinin": 6235,
      "çiftin": 6236,
      "sandviçleri": 6237,
      "tarlay": 6238,
      "çıkmak": 6239,
      "düzel": 6240,
      "ortasındadır": 6241,
      "kapıya": 6242,
      "mandal": 6243,
      "yağlı": 6244,
      "akar": 6245,
      "makasın": 6246,
      "örter": 6247,
      "çarpar": 6248,
      "motorsiklet": 6249,
      "atışları": 6250,
      "havuzun": 6251,
      "tişörtü": 6252,
      "new": 6253,
      "parçasını": 6254,
      "kovalayan": 6255,
      "koltuğuna": 6256,
      "grubunun": 6257,
      "dalış": 6258,
      "parasail": 6259,
      "porselen": 6260,
      "smokin": 6261,
      "fiş": 6262,
      "hoo": 6263,
      "mark": 6264,
      "##dak": 6265,
      "çilekli": 6266,
      "ted": 6267,
      "kişilerin": 6268,
      "işy": 6269,
      "kaykayları": 6270,
      "hazırlarken": 6271,
      "sürün": 6272,
      "pot": 6273,
      "##ılma": 6274,
      "bow": 6275,
      "hayvana": 6276,
      "kesiliyor": 6277,
      "çıkış": 6278,
      "gid": 6279,
      "pistinden": 6280,
      "doğrudan": 6281,
      "asıyor": 6282,
      "kapıyı": 6283,
      "eşiği": 6284,
      "kafe": 6285,
      "frisb": 6286,
      "döşem": 6287,
      "seviye": 6288,
      "haline": 6289,
      "sıska": 6290,
      "mumlu": 6291,
      "sıraları": 6292,
      "havlular": 6293,
      "dalgasına": 6294,
      "eldivenli": 6295,
      "ayrıntı": 6296,
      "ürünleri": 6297,
      "noktası": 6298,
      "kulübenin": 6299,
      "demiryolunun": 6300,
      "amba": 6301,
      "süslemeler": 6302,
      "ülkede": 6303,
      "hindi": 6304,
      "topluluğu": 6305,
      "derece": 6306,
      "kâğı": 6307,
      "osmanlı": 6308,
      "tampon": 6309,
      "zırh": 6310,
      "aviz": 6311,
      "fer": 6312,
      "vir": 6313,
      "yün": 6314,
      "şela": 6315,
      "##sinden": 6316,
      "##py": 6317,
      "birey": 6318,
      "##ere": 6319,
      "yansır": 6320,
      "##ese": 6321,
      "##emiyor": 6322,
      "##ürken": 6323,
      "kayıt": 6324,
      "tutsak": 6325,
      "karikat": 6326,
      "varil": 6327,
      "yapının": 6328,
      "##imsiz": 6329,
      "kapladı": 6330,
      "toplama": 6331,
      "baktı": 6332,
      "banyosunda": 6333,
      "bisikletlerin": 6334,
      "##mez": 6335,
      "konan": 6336,
      "izleyerek": 6337,
      "kumsa": 6338,
      "hazırlanmamış": 6339,
      "kollarında": 6340,
      "yosun": 6341,
      "yükseliyor": 6342,
      "mola": 6343,
      "yerdedir": 6344,
      "görüntüleri": 6345,
      "gözlükleri": 6346,
      "döner": 6347,
      "giymişti": 6348,
      "onunla": 6349,
      "yarışma": 6350,
      "##taran": 6351,
      "klavyede": 6352,
      "sergilendi": 6353,
      "dalgayı": 6354,
      "dinleniyor": 6355,
      "maçını": 6356,
      "satır": 6357,
      "cihazı": 6358,
      "rahatlıyor": 6359,
      "değişik": 6360,
      "öğleden": 6361,
      "çölün": 6362,
      "yüzeyinde": 6363,
      "şeklindeki": 6364,
      "yılbaşı": 6365,
      "istiflenmiş": 6366,
      "bükülmüş": 6367,
      "yakınlaştırma": 6368,
      "nakliye": 6369,
      "sarımsak": 6370,
      "dünya": 6371,
      "aranjmanı": 6372,
      "spatula": 6373,
      "forma": 6374,
      "ho": 6375,
      "mür": 6376,
      "nun": 6377,
      "##ry": 6378,
      "##gal": 6379,
      "##keti": 6380,
      "##lığında": 6381,
      "##lerken": 6382,
      "durması": 6383,
      "kişiyle": 6384,
      "küm": 6385,
      "band": 6386,
      "tenisçiler": 6387,
      "sular": 6388,
      "sanki": 6389,
      "sandığı": 6390,
      "dog": 6391,
      "gev": 6392,
      "havayol": 6393,
      "yerel": 6394,
      "motosikletlerle": 6395,
      "erkeklerin": 6396,
      "dalının": 6397,
      "sıralan": 6398,
      "tutuyorlar": 6399,
      "vazoya": 6400,
      "kekler": 6401,
      "yiyorken": 6402,
      "topuyla": 6403,
      "vermek": 6404,
      "vurur": 6405,
      "meraklı": 6406,
      "asılan": 6407,
      "##lemesi": 6408,
      "bitiş": 6409,
      "örten": 6410,
      "fincanın": 6411,
      "koştur": 6412,
      "yarışında": 6413,
      "gezdirir": 6414,
      "tarafındaki": 6415,
      "aydınlat": 6416,
      "klavyeye": 6417,
      "içeceklerle": 6418,
      "beşik": 6419,
      "otoparkın": 6420,
      "heykelinin": 6421,
      "haç": 6422,
      "aydınlatı": 6423,
      "bacaklar": 6424,
      "kombin": 6425,
      "yayın": 6426,
      "ürünler": 6427,
      "ulaşır": 6428,
      "römorku": 6429,
      "bilgisayarıyla": 6430,
      "cola": 6431,
      "annesi": 6432,
      "fırlatan": 6433,
      "partisinde": 6434,
      "deliğinin": 6435,
      "skateboard": 6436,
      "sallanmaya": 6437,
      "tehlik": 6438,
      "festival": 6439,
      "çırp": 6440,
      "kumsala": 6441,
      "kombinasyon": 6442,
      "19": 6443,
      "gür": 6444,
      "mük": 6445,
      "pop": 6446,
      "zenc": 6447,
      "##mel": 6448,
      "##çileri": 6449,
      "##qu": 6450,
      "##ende": 6451,
      "##ürlü": 6452,
      "varsa": 6453,
      "parkının": 6454,
      "##dırıyor": 6455,
      "kırılmış": 6456,
      "filo": 6457,
      "##elerde": 6458,
      "tabaklarda": 6459,
      "çektiği": 6460,
      "tekneyi": 6461,
      "gösterisi": 6462,
      "dilini": 6463,
      "kayakçıları": 6464,
      "bankında": 6465,
      "deniyor": 6466,
      "oluşum": 6467,
      "ağzını": 6468,
      "yenmeye": 6469,
      "kıyafetleri": 6470,
      "devasa": 6471,
      "polisi": 6472,
      "mobilyaları": 6473,
      "yönet": 6474,
      "çarpıyor": 6475,
      "gölgesinde": 6476,
      "arkadaşın": 6477,
      "ördekler": 6478,
      "binicisi": 6479,
      "bölümünde": 6480,
      "kuyruklu": 6481,
      "çıkartmalar": 6482,
      "maskesi": 6483,
      "kıvırcık": 6484,
      "bamb": 6485,
      "blo": 6486,
      "ceb": 6487,
      "hol": 6488,
      "vad": 6489,
      "üc": 6490,
      "şamp": 6491,
      "##iver": 6492,
      "##va": 6493,
      "##hone": 6494,
      "##lel": 6495,
      "##tali": 6496,
      "##emmel": 6497,
      "büyü": 6498,
      "atarak": 6499,
      "trib": 6500,
      "keleb": 6501,
      "toplanmış": 6502,
      "eller": 6503,
      "çimlerle": 6504,
      "başlıyor": 6505,
      "takılmıştır": 6506,
      "bisikletinde": 6507,
      "pastır": 6508,
      "kub": 6509,
      "sıralı": 6510,
      "kattaki": 6511,
      "pistin": 6512,
      "hazırlanmaya": 6513,
      "kiteboard": 6514,
      "şarab": 6515,
      "kitapların": 6516,
      "bitir": 6517,
      "dolduruyor": 6518,
      "kağıtlar": 6519,
      "baskı": 6520,
      "kütlesinde": 6521,
      "rayları": 6522,
      "rayına": 6523,
      "stüd": 6524,
      "toh": 6525,
      "içeceklerin": 6526,
      "korsan": 6527,
      "merkezinin": 6528,
      "denize": 6529,
      "eldiveniyle": 6530,
      "pastasına": 6531,
      "alırken": 6532,
      "rahatlar": 6533,
      "garnit": 6534,
      "müze": 6535,
      "kafeste": 6536,
      "depoda": 6537,
      "giysileri": 6538,
      "konsolu": 6539,
      "dükkânında": 6540,
      "seyirciler": 6541,
      "meydanında": 6542,
      "tasarımı": 6543,
      "pençeleri": 6544,
      "oynanan": 6545,
      "hattında": 6546,
      "döngüsü": 6547,
      "polka": 6548,
      "grafitle": 6549,
      "karikatür": 6550,
      "mükemmel": 6551,
      "stüdyo": 6552,
      "bile": 6553,
      "fik": 6554,
      "last": 6555,
      "tul": 6556,
      "yurt": 6557,
      "zir": 6558,
      "öd": 6559,
      "##dük": 6560,
      "##kur": 6561,
      "##ff": 6562,
      "birileri": 6563,
      "##iner": 6564,
      "kaş": 6565,
      "##lev": 6566,
      "##lit": 6567,
      "##die": 6568,
      "tutmak": 6569,
      "atını": 6570,
      "yaptı": 6571,
      "araş": 6572,
      "topuklu": 6573,
      "baktığı": 6574,
      "fırlatıyor": 6575,
      "bisikletçinin": 6576,
      "arkadaki": 6577,
      "sof": 6578,
      "pastasında": 6579,
      "##meden": 6580,
      "kısı": 6581,
      "koyunlarla": 6582,
      "buzlanma": 6583,
      "##ğundan": 6584,
      "dağdaki": 6585,
      "çöreklerle": 6586,
      "aynalar": 6587,
      "yarışı": 6588,
      "şehri": 6589,
      "kasktaki": 6590,
      "stunt": 6591,
      "tali": 6592,
      "yuvarlanan": 6593,
      "kasabaya": 6594,
      "çöküyor": 6595,
      "pantolonlu": 6596,
      "cankur": 6597,
      "paralel": 6598,
      "burnunu": 6599,
      "gömleğ": 6600,
      "surf": 6601,
      "##dikleri": 6602,
      "kupası": 6603,
      "boyanmıştır": 6604,
      "fırtın": 6605,
      "teslim": 6606,
      "sivri": 6607,
      "hipster": 6608,
      "bezelye": 6609,
      "ambalaj": 6610,
      "bok": 6611,
      "benc": 6612,
      "körf": 6613,
      "nef": 6614,
      "##ty": 6615,
      "##faf": 6616,
      "##irmen": 6617,
      "##ish": 6618,
      "masayı": 6619,
      "##üsünü": 6620,
      "atta": 6621,
      "masaları": 6622,
      "kök": 6623,
      "çocukları": 6624,
      "alanını": 6625,
      "##ella": 6626,
      "göremiyor": 6627,
      "ağacında": 6628,
      "yerinin": 6629,
      "hazırlamak": 6630,
      "yataklar": 6631,
      "binadan": 6632,
      "##box": 6633,
      "inekle": 6634,
      "hazırlanırken": 6635,
      "kameranın": 6636,
      "karşısına": 6637,
      "uçuyordu": 6638,
      "girmek": 6639,
      "yapraklarla": 6640,
      "atlarken": 6641,
      "musluğuna": 6642,
      "bakarlar": 6643,
      "geçitte": 6644,
      "parkurun": 6645,
      "kadehler": 6646,
      "rahatça": 6647,
      "ipi": 6648,
      "şeffaf": 6649,
      "komidin": 6650,
      "okyanustan": 6651,
      "özen": 6652,
      "ulaşan": 6653,
      "uzanıyordu": 6654,
      "modeli": 6655,
      "##dıktan": 6656,
      "kasabadaki": 6657,
      "sayfa": 6658,
      "lekeli": 6659,
      "evcilleştir": 6660,
      "okuma": 6661,
      "soğutucu": 6662,
      "radyo": 6663,
      "çubuğu": 6664,
      "ceset": 6665,
      "katedral": 6666,
      "ekstra": 6667,
      "yıkama": 6668,
      "içeceği": 6669,
      "feribot": 6670,
      "tarlayın": 6671,
      "cankurtaran": 6672,
      "körfez": 6673,
      "ci": 6674,
      "chi": 6675,
      "flip": 6676,
      "ler": 6677,
      "mat": 6678,
      "mev": 6679,
      "ped": 6680,
      "tay": 6681,
      "ucu": 6682,
      "##puz": 6683,
      "##jet": 6684,
      "##deş": 6685,
      "##ilmeye": 6686,
      "oturarak": 6687,
      "karpuz": 6688,
      "##tez": 6689,
      "tenisçisi": 6690,
      "aralarında": 6691,
      "aracının": 6692,
      "##ürül": 6693,
      "##ell": 6694,
      "telefona": 6695,
      "olma": 6696,
      "##tilat": 6697,
      "plakasının": 6698,
      "bagajını": 6699,
      "raftaki": 6700,
      "uyurken": 6701,
      "batımı": 6702,
      "bitkileri": 6703,
      "döşüyor": 6704,
      "ortaya": 6705,
      "devr": 6706,
      "faresi": 6707,
      "çarpmak": 6708,
      "avcı": 6709,
      "düştü": 6710,
      "pişirilir": 6711,
      "yansımasına": 6712,
      "heykeller": 6713,
      "çöktü": 6714,
      "sporcu": 6715,
      "dondurulmuş": 6716,
      "türleri": 6717,
      "yoluyla": 6718,
      "arazi": 6719,
      "garajın": 6720,
      "dudak": 6721,
      "annesinin": 6722,
      "etkinlik": 6723,
      "kulaklıklar": 6724,
      "savuruyor": 6725,
      "inceler": 6726,
      "boncuk": 6727,
      "yoğurt": 6728,
      "kelebek": 6729,
      "acı": 6730,
      "alacak": 6731,
      "bı": 6732,
      "eb": 6733,
      "fe": 6734,
      "haber": 6735,
      "tığ": 6736,
      "zım": 6737,
      "##dis": 6738,
      "##cından": 6739,
      "##ciler": 6740,
      "##sam": 6741,
      "##yal": 6742,
      "durum": 6743,
      "durağının": 6744,
      "inerken": 6745,
      "uçlu": 6746,
      "kartal": 6747,
      "##lumb": 6748,
      "sularda": 6749,
      "toplar": 6750,
      "dolgun": 6751,
      "fille": 6752,
      "uçakla": 6753,
      "geçid": 6754,
      "kanca": 6755,
      "som": 6756,
      "izlerde": 6757,
      "gökyüzünü": 6758,
      "kaldırdı": 6759,
      "kaldırılmış": 6760,
      "kestir": 6761,
      "bardağın": 6762,
      "mersini": 6763,
      "kapıyla": 6764,
      "demeti": 6765,
      "çalan": 6766,
      "kutuplu": 6767,
      "jetler": 6768,
      "jetlin": 6769,
      "kavşağın": 6770,
      "patatesli": 6771,
      "çekiyorlar": 6772,
      "çatallı": 6773,
      "muhafazanın": 6774,
      "barış": 6775,
      "yukarıdan": 6776,
      "ayrılmış": 6777,
      "değirmen": 6778,
      "gitmek": 6779,
      "kıyısındaki": 6780,
      "minik": 6781,
      "sıçrar": 6782,
      "diskle": 6783,
      "tesis": 6784,
      "üfleme": 6785,
      "paylaşan": 6786,
      "nesneler": 6787,
      "gereken": 6788,
      "hücr": 6789,
      "vantilat": 6790,
      "heyecanlı": 6791,
      "kürklü": 6792,
      "kâğıt": 6793,
      "bambu": 6794,
      "lu": 6795,
      "york": 6796,
      "##og": 6797,
      "##car": 6798,
      "##çiç": 6799,
      "##irler": 6800,
      "birinci": 6801,
      "##inyum": 6802,
      "##ilte": 6803,
      "##yalı": 6804,
      "yanda": 6805,
      "ayçiç": 6806,
      "##tor": 6807,
      "işaretini": 6808,
      "alüm": 6809,
      "açtı": 6810,
      "konuk": 6811,
      "kullanma": 6812,
      "binadaki": 6813,
      "kuleye": 6814,
      "taşırken": 6815,
      "soslarla": 6816,
      "gözet": 6817,
      "çanağı": 6818,
      "kravatla": 6819,
      "kayakçıların": 6820,
      "manev": 6821,
      "uyum": 6822,
      "akıyor": 6823,
      "yakaladı": 6824,
      "kafasının": 6825,
      "kavr": 6826,
      "mahkemesinde": 6827,
      "yenen": 6828,
      "şemsiyesini": 6829,
      "ave": 6830,
      "saran": 6831,
      "sobası": 6832,
      "kayalıklarla": 6833,
      "geçitten": 6834,
      "bölgesinde": 6835,
      "yapışkan": 6836,
      "şeftali": 6837,
      "yayılmış": 6838,
      "dizilmiştir": 6839,
      "ayarlayan": 6840,
      "durdurulur": 6841,
      "alınmış": 6842,
      "kotlu": 6843,
      "koridorda": 6844,
      "sehpası": 6845,
      "emn": 6846,
      "sınıfta": 6847,
      "kesip": 6848,
      "şube": 6849,
      "kraker": 6850,
      "birleşik": 6851,
      "alüminyum": 6852,
      "alarak": 6853,
      "ebat": 6854,
      "gr": 6855,
      "pra": 6856,
      "çini": 6857,
      "##ydu": 6858,
      "##çü": 6859,
      "birisinin": 6860,
      "##okad": 6861,
      "##matik": 6862,
      "##aval": 6863,
      "içilen": 6864,
      "##ıklı": 6865,
      "yapay": 6866,
      "yemeğin": 6867,
      "yemeyi": 6868,
      "bilgisayarının": 6869,
      "tarif": 6870,
      "##ımlı": 6871,
      "dize": 6872,
      "##eveyn": 6873,
      "erkekle": 6874,
      "erkeklerle": 6875,
      "takılıyor": 6876,
      "arkalarında": 6877,
      "dalları": 6878,
      "konumda": 6879,
      "sallanıyor": 6880,
      "evinin": 6881,
      "tarlalarda": 6882,
      "katlanır": 6883,
      "bebeğini": 6884,
      "aşağısına": 6885,
      "buzdolabını": 6886,
      "kivi": 6887,
      "bagajlı": 6888,
      "bekleme": 6889,
      "batı": 6890,
      "uzanmış": 6891,
      "patika": 6892,
      "çantayı": 6893,
      "yele": 6894,
      "salınc": 6895,
      "kaleminde": 6896,
      "tepsideki": 6897,
      "cihazlar": 6898,
      "kürekle": 6899,
      "çömlek": 6900,
      "bezle": 6901,
      "sayaçları": 6902,
      "koklayan": 6903,
      "hoşlanıyor": 6904,
      "##landırılmış": 6905,
      "light": 6906,
      "itiyor": 6907,
      "güçlü": 6908,
      "dikilmiş": 6909,
      "vitrinde": 6910,
      "dayayan": 6911,
      "panelli": 6912,
      "with": 6913,
      "tereyağı": 6914,
      "sonbahar": 6915,
      "gof": 6916,
      "öküz": 6917,
      "hoodie": 6918,
      "ebeveyn": 6919,
      "cid": 6920,
      "hap": 6921,
      "nar": 6922,
      "tort": 6923,
      "uf": 6924,
      "çürü": 6925,
      "şilte": 6926,
      "##düğ": 6927,
      "##ceğin": 6928,
      "##and": 6929,
      "inter": 6930,
      "oyma": 6931,
      "atlarını": 6932,
      "oyunun": 6933,
      "önlerinde": 6934,
      "trenine": 6935,
      "yatır": 6936,
      "topluyor": 6937,
      "bilgisayarları": 6938,
      "alman": 6939,
      "görebilir": 6940,
      "otobüslerin": 6941,
      "arabasını": 6942,
      "havayolu": 6943,
      "tuvaletler": 6944,
      "doluydu": 6945,
      "ayıya": 6946,
      "giyer": 6947,
      "çiftçi": 6948,
      "##elerinde": 6949,
      "şemsiyelerle": 6950,
      "dallarında": 6951,
      "pota": 6952,
      "taraflı": 6953,
      "muzların": 6954,
      "tarladan": 6955,
      "giderken": 6956,
      "back": 6957,
      "yükleyen": 6958,
      "verdi": 6959,
      "başkalarının": 6960,
      "kortuna": 6961,
      "aslan": 6962,
      "çöken": 6963,
      "buzdolabıyla": 6964,
      "kabu": 6965,
      "bavullar": 6966,
      "görüntüleniyor": 6967,
      "##atılan": 6968,
      "süper": 6969,
      "sığın": 6970,
      "tabloya": 6971,
      "avokad": 6972,
      "koltuklar": 6973,
      "ener": 6974,
      "yastıkla": 6975,
      "yapılmıştır": 6976,
      "kayalıkların": 6977,
      "şapkasını": 6978,
      "##ladığı": 6979,
      "kaplanmıştır": 6980,
      "pij": 6981,
      "sahilden": 6982,
      "kafesli": 6983,
      "koltuğunun": 6984,
      "martılar": 6985,
      "dikkatli": 6986,
      "kesimde": 6987,
      "saplı": 6988,
      "antre": 6989,
      "direğinin": 6990,
      "etkinlikte": 6991,
      "paraşütle": 6992,
      "taşınabilir": 6993,
      "kalkışa": 6994,
      "konteynır": 6995,
      "yudum": 6996,
      "bagel": 6997,
      "savann": 6998,
      "işadamı": 6999,
      "bowling": 7000,
      "pastırması": 7001,
      "emniyet": 7002,
      "ail": 7003,
      "bası": 7004,
      "caz": 7005,
      "kru": 7006,
      "zindan": 7007,
      "##vas": 7008,
      "##vaz": 7009,
      "##ğen": 7010,
      "##iliği": 7011,
      "otu": 7012,
      "otlat": 7013,
      "##onlu": 7014,
      "masayla": 7015,
      "uçarlar": 7016,
      "yakalıyor": 7017,
      "masaların": 7018,
      "##imde": 7019,
      "işte": 7020,
      "kaykayçı": 7021,
      "dolmuş": 7022,
      "üçüncü": 7023,
      "saate": 7024,
      "tezgâh": 7025,
      "ayılarla": 7026,
      "başlarını": 7027,
      "başlamış": 7028,
      "fotoğraflar": 7029,
      "bisikletine": 7030,
      "bisiklette": 7031,
      "kutlayan": 7032,
      "dalda": 7033,
      "lavabolar": 7034,
      "kasesinin": 7035,
      "taşan": 7036,
      "kenarından": 7037,
      "dili": 7038,
      "parçalara": 7039,
      "kurdele": 7040,
      "##lükte": 7041,
      "kafat": 7042,
      "kavga": 7043,
      "köprüsü": 7044,
      "çantada": 7045,
      "deki": 7046,
      "burası": 7047,
      "ocaklı": 7048,
      "gövdesinin": 7049,
      "gövdesiyle": 7050,
      "boynunun": 7051,
      "satıyor": 7052,
      "vadi": 7053,
      "adlı": 7054,
      "kulakları": 7055,
      "yapıya": 7056,
      "zamanı": 7057,
      "palto": 7058,
      "fayanslı": 7059,
      "fırınının": 7060,
      "maddesi": 7061,
      "kelimeleri": 7062,
      "lider": 7063,
      "yanaşan": 7064,
      "etmiştir": 7065,
      "defteri": 7066,
      "birikintisi": 7067,
      "formasyon": 7068,
      "rakibine": 7069,
      "kısım": 7070,
      "göremiyorum": 7071,
      "20": 7072,
      "acil": 7073,
      "ru": 7074,
      "rol": 7075,
      "söz": 7076,
      "tra": 7077,
      "şim": 7078,
      "##lemiş": 7079,
      "##iliğ": 7080,
      "##land": 7081,
      "##azz": 7082,
      "çiti": 7083,
      "insana": 7084,
      "büyüyor": 7085,
      "kep": 7086,
      "oynat": 7087,
      "toplan": 7088,
      "ettiği": 7089,
      "motosikletleri": 7090,
      "fırlat": 7091,
      "gününde": 7092,
      "kutudaki": 7093,
      "çimenler": 7094,
      "eklenmiş": 7095,
      "kaldırımı": 7096,
      "çitte": 7097,
      "bebeğe": 7098,
      "gösterisinde": 7099,
      "kite": 7100,
      "pencereleri": 7101,
      "odasındaki": 7102,
      "beklemek": 7103,
      "ekrana": 7104,
      "uçuyorlar": 7105,
      "person": 7106,
      "sırtındaki": 7107,
      "döndür": 7108,
      "saçları": 7109,
      "üniver": 7110,
      "köprüye": 7111,
      "salınır": 7112,
      "kilim": 7113,
      "hatlarının": 7114,
      "dokuz": 7115,
      "eğleniyor": 7116,
      "sıkışıyor": 7117,
      "getirir": 7118,
      "kucağına": 7119,
      "kütlesidir": 7120,
      "show": 7121,
      "kanatlı": 7122,
      "şeridine": 7123,
      "hortumu": 7124,
      "iğn": 7125,
      "hastane": 7126,
      "etkileşime": 7127,
      "kompakt": 7128,
      "yolculuğa": 7129,
      "vücud": 7130,
      "arenada": 7131,
      "mandalina": 7132,
      "işyer": 7133,
      "avize": 7134,
      "ücret": 7135,
      "fikst": 7136,
      "aper": 7137,
      "ref": 7138,
      "yır": 7139,
      "##ısı": 7140,
      "##best": 7141,
      "vejet": 7142,
      "##iştir": 7143,
      "yanlarında": 7144,
      "##kab": 7145,
      "karan": 7146,
      "karar": 7147,
      "masalarında": 7148,
      "yapmayı": 7149,
      "##arıma": 7150,
      "toplayan": 7151,
      "##zgün": 7152,
      "##tane": 7153,
      "izleyici": 7154,
      "kasesine": 7155,
      "sandviçle": 7156,
      "sallanır": 7157,
      "kiriş": 7158,
      "trafikle": 7159,
      "kekleri": 7160,
      "resmidir": 7161,
      "eğr": 7162,
      "camdan": 7163,
      "dağlara": 7164,
      "uzanarak": 7165,
      "duşta": 7166,
      "muazz": 7167,
      "girdi": 7168,
      "izlerden": 7169,
      "ıssız": 7170,
      "yağmurun": 7171,
      "dükkana": 7172,
      "aydınlatıyor": 7173,
      "fillere": 7174,
      "salonu": 7175,
      "yaklaşır": 7176,
      "perdelerle": 7177,
      "ilerliyorlar": 7178,
      "kendisini": 7179,
      "sunulmaktadır": 7180,
      "görüldü": 7181,
      "##hane": 7182,
      "##kuşu": 7183,
      "silin": 7184,
      "demiryoluna": 7185,
      "canav": 7186,
      "coca": 7187,
      "figürü": 7188,
      "vagonu": 7189,
      "ölçek": 7190,
      "kims": 7191,
      "turistler": 7192,
      "##tıktan": 7193,
      "oyuncunun": 7194,
      "gözüküyor": 7195,
      "örnek": 7196,
      "salıncakta": 7197,
      "gofret": 7198,
      "avokado": 7199,
      "ailenin": 7200,
      "muazzam": 7201,
      "cey": 7202,
      "diy": 7203,
      "lâh": 7204,
      "üzgün": 7205,
      "##nak": 7206,
      "##ds": 7207,
      "##udu": 7208,
      "##ray": 7209,
      "durarak": 7210,
      "##oped": 7211,
      "yapım": 7212,
      "sokağını": 7213,
      "tabanda": 7214,
      "keçiler": 7215,
      "yolları": 7216,
      "beyzbolla": 7217,
      "bilgisayarlı": 7218,
      "tahtanın": 7219,
      "erit": 7220,
      "kahveye": 7221,
      "ahşaptan": 7222,
      "telefonlarıyla": 7223,
      "sürülüyor": 7224,
      "sürec": 7225,
      "rende": 7226,
      "konum": 7227,
      "aşam": 7228,
      "gözlerini": 7229,
      "keki": 7230,
      "kayağında": 7231,
      "elbiseler": 7232,
      "portresi": 7233,
      "demek": 7234,
      "kutupların": 7235,
      "eşyası": 7236,
      "dolapta": 7237,
      "perfor": 7238,
      "kaseleri": 7239,
      "kıyafetindeki": 7240,
      "sergilenmesi": 7241,
      "kediye": 7242,
      "gövdesine": 7243,
      "##lamasına": 7244,
      "merkezindeki": 7245,
      "yaklaşmakta": 7246,
      "perdeleri": 7247,
      "döşeniyor": 7248,
      "benzemek": 7249,
      "şefin": 7250,
      "sunan": 7251,
      "sunum": 7252,
      "atlamayı": 7253,
      "yönlendiren": 7254,
      "donatılmıştır": 7255,
      "boyutlu": 7256,
      "çiğnemek": 7257,
      "partisi": 7258,
      "polo": 7259,
      "lokantada": 7260,
      "görevlisi": 7261,
      "tohum": 7262,
      "garnitür": 7263,
      "talimat": 7264,
      "özenle": 7265,
      "lâhana": 7266,
      "performan": 7267,
      "dvd": 7268,
      "ir": 7269,
      "çem": 7270,
      "öde": 7271,
      "##isinden": 7272,
      "oturdu": 7273,
      "göt": 7274,
      "buluş": 7275,
      "karada": 7276,
      "yemesi": 7277,
      "kayakçının": 7278,
      "açılıyor": 7279,
      "etin": 7280,
      "yemeklerin": 7281,
      "##cılık": 7282,
      "bisikletlerini": 7283,
      "kesildi": 7284,
      "ekle": 7285,
      "##room": 7286,
      "serbest": 7287,
      "çalıştır": 7288,
      "dalgalarla": 7289,
      "gözleme": 7290,
      "kenarındadır": 7291,
      "kulede": 7292,
      "pencerelerin": 7293,
      "tekneleri": 7294,
      "konuşmak": 7295,
      "camından": 7296,
      "suyunda": 7297,
      "tavanın": 7298,
      "ayaklarını": 7299,
      "ayaklarının": 7300,
      "havaalanından": 7301,
      "çalışanı": 7302,
      "sever": 7303,
      "düşer": 7304,
      "ayakkabılar": 7305,
      "yolundaki": 7306,
      "mağazası": 7307,
      "telefonundaki": 7308,
      "pastasının": 7309,
      "otlatan": 7310,
      "biberle": 7311,
      "ayağının": 7312,
      "hemş": 7313,
      "kulübesinde": 7314,
      "rode": 7315,
      "tarzda": 7316,
      "mesafe": 7317,
      "##cher": 7318,
      "uzatılmış": 7319,
      "oval": 7320,
      "tabelaları": 7321,
      "rıhtımda": 7322,
      "seyircilerle": 7323,
      "çamaşırı": 7324,
      "örtüsünde": 7325,
      "kurulmuştur": 7326,
      "götüren": 7327,
      "fırtınalı": 7328,
      "subay": 7329,
      "teddy": 7330,
      "havayolları": 7331,
      "##tezi": 7332,
      "manevra": 7333,
      "lightbox": 7334,
      "tortilla": 7335,
      "ağı": 7336,
      "grey": 7337,
      "rast": 7338,
      "rac": 7339,
      "tı": 7340,
      "##ota": 7341,
      "##tak": 7342,
      "##meyin": 7343,
      "##ceğini": 7344,
      "##usu": 7345,
      "##bel": 7346,
      "##beli": 7347,
      "##âr": 7348,
      "##tap": 7349,
      "büyüm": 7350,
      "soktu": 7351,
      "kaptan": 7352,
      "kaplayan": 7353,
      "beyzbolcu": 7354,
      "beyzbollu": 7355,
      "filleri": 7356,
      "ahudu": 7357,
      "kahvenin": 7358,
      "motosikletli": 7359,
      "tepesinden": 7360,
      "telefondan": 7361,
      "başlarına": 7362,
      "fırlar": 7363,
      "günlerde": 7364,
      "saldır": 7365,
      "birço": 7366,
      "kaldırımına": 7367,
      "yüzük": 7368,
      "turn": 7369,
      "göstermek": 7370,
      "gösterilmiştir": 7371,
      "istasyondaki": 7372,
      "parçalanmış": 7373,
      "kutuplar": 7374,
      "plakadaki": 7375,
      "batak": 7376,
      "rampasına": 7377,
      "dönmeye": 7378,
      "böyle": 7379,
      "ortadaki": 7380,
      "izlerler": 7381,
      "sevimsiz": 7382,
      "ileriye": 7383,
      "muhafazasının": 7384,
      "domatesler": 7385,
      "kordon": 7386,
      "ofisi": 7387,
      "gözlüğ": 7388,
      "parkurlarda": 7389,
      "sağlar": 7390,
      "yapıştırıyor": 7391,
      "otobüsteki": 7392,
      "kalkmaya": 7393,
      "ipod": 7394,
      "standının": 7395,
      "alışılma": 7396,
      "soluk": 7397,
      "parçalı": 7398,
      "yıkıyor": 7399,
      "uzatıyor": 7400,
      "çekmeceli": 7401,
      "şirket": 7402,
      "sıçrayan": 7403,
      "görülebilen": 7404,
      "çeviriyor": 7405,
      "konuşurlar": 7406,
      "aksesuarlar": 7407,
      "olayda": 7408,
      "kamuf": 7409,
      "kütüphanede": 7410,
      "bazi": 7411,
      "##ways": 7412,
      "dantel": 7413,
      "sürülür": 7414,
      "softbol": 7415,
      "çaydanlık": 7416,
      "şelale": 7417,
      "ayçiçeği": 7418,
      "kavrulmuş": 7419,
      "alışılmadık": 7420,
      "bide": 7421,
      "moped": 7422,
      "um": 7423,
      "wet": 7424,
      "##ach": 7425,
      "##cerenin": 7426,
      "##eni": 7427,
      "##laya": 7428,
      "##lığın": 7429,
      "becer": 7430,
      "durup": 7431,
      "üzerlerinde": 7432,
      "bulunmayan": 7433,
      "tencerenin": 7434,
      "##ebile": 7435,
      "çimlere": 7436,
      "işaretlerle": 7437,
      "##eğine": 7438,
      "açıkta": 7439,
      "sürt": 7440,
      "keserken": 7441,
      "dışarıdan": 7442,
      "anı": 7443,
      "and": 7444,
      "parçalar": 7445,
      "##ulmuştur": 7446,
      "bagajlar": 7447,
      "bankı": 7448,
      "boşaltı": 7449,
      "kurtar": 7450,
      "kabl": 7451,
      "dolapların": 7452,
      "yolundan": 7453,
      "çizim": 7454,
      "çizimi": 7455,
      "herhan": 7456,
      "ağaçlardan": 7457,
      "paneli": 7458,
      "savun": 7459,
      "raylar": 7460,
      "merdivenleri": 7461,
      "atışta": 7462,
      "yığınları": 7463,
      "perdeli": 7464,
      "sağlayan": 7465,
      "pikap": 7466,
      "iskeleye": 7467,
      "kulübede": 7468,
      "kıyafetlerindeki": 7469,
      "##lığıyla": 7470,
      "çamurda": 7471,
      "papat": 7472,
      "torbası": 7473,
      "kurutucu": 7474,
      "futbolcular": 7475,
      "ova": 7476,
      "sürücüler": 7477,
      "karnaval": 7478,
      "bağlanmıştır": 7479,
      "ranz": 7480,
      "noktalı": 7481,
      "istiflenir": 7482,
      "boyutlarda": 7483,
      "olayında": 7484,
      "ingilizce": 7485,
      "limanının": 7486,
      "götürür": 7487,
      "egz": 7488,
      "bakkalda": 7489,
      "hangarın": 7490,
      "parmağını": 7491,
      "boarduna": 7492,
      "yükseltilmiş": 7493,
      "teçhizat": 7494,
      "güreş": 7495,
      "zencef": 7496,
      "şampanya": 7497,
      "savannah": 7498,
      "wetsuit": 7499,
      "herhangi": 7500,
      "cez": 7501,
      "food": 7502,
      "gu": 7503,
      "hes": 7504,
      "pide": 7505,
      "püf": 7506,
      "star": 7507,
      "wash": 7508,
      "zıt": 7509,
      "##ktan": 7510,
      "##seri": 7511,
      "##her": 7512,
      "kalay": 7513,
      "##ayi": 7514,
      "bear": 7515,
      "##olo": 7516,
      "##örlü": 7517,
      "atö": 7518,
      "attığı": 7519,
      "aro": 7520,
      "tabanı": 7521,
      "alanlarda": 7522,
      "kaykaylar": 7523,
      "kaykayının": 7524,
      "elmas": 7525,
      "geliş": 7526,
      "açik": 7527,
      "altinda": 7528,
      "göründüğü": 7529,
      "telefonlar": 7530,
      "çiftçiler": 7531,
      "##elip": 7532,
      "zebralı": 7533,
      "##dığını": 7534,
      "çekerek": 7535,
      "şemsiyelerin": 7536,
      "koniler": 7537,
      "sandalyeyle": 7538,
      "kasa": 7539,
      "kanepesi": 7540,
      "kesimi": 7541,
      "##ayıcı": 7542,
      "gider": 7543,
      "resimdeki": 7544,
      "koluna": 7545,
      "kral": 7546,
      "kulesinde": 7547,
      "yükleniyor": 7548,
      "bagajıyla": 7549,
      "asılıyor": 7550,
      "yağarken": 7551,
      "sürüyorlar": 7552,
      "giraf": 7553,
      "döşeyen": 7554,
      "##ilebilir": 7555,
      "saçını": 7556,
      "seviş": 7557,
      "çantalar": 7558,
      "renkleri": 7559,
      "yarışta": 7560,
      "teras": 7561,
      "saklama": 7562,
      "makinesinde": 7563,
      "içecekle": 7564,
      "halıya": 7565,
      "yamaçlarında": 7566,
      "ayrılıyor": 7567,
      "çömelip": 7568,
      "özellik": 7569,
      "göletin": 7570,
      "korkulukla": 7571,
      "paylaş": 7572,
      "kablosuz": 7573,
      "tonlu": 7574,
      "bunlar": 7575,
      "dükkânının": 7576,
      "verandada": 7577,
      "mezun": 7578,
      "eğitim": 7579,
      "çizgisinde": 7580,
      "donanımı": 7581,
      "silueti": 7582,
      "labora": 7583,
      "oynadığı": 7584,
      "projektör": 7585,
      "döşemeli": 7586,
      "ayrıntılı": 7587,
      "stunts": 7588,
      "çember": 7589,
      "rodeo": 7590,
      "hır": 7591,
      "lı": 7592,
      "oba": 7593,
      "pey": 7594,
      "pelik": 7595,
      "slay": 7596,
      "öb": 7597,
      "özg": 7598,
      "##ite": 7599,
      "##ydi": 7600,
      "##rü": 7601,
      "##ren": 7602,
      "##ee": 7603,
      "##tle": 7604,
      "##tey": 7605,
      "##cik": 7606,
      "##üme": 7607,
      "birisine": 7608,
      "##asinda": 7609,
      "##lans": 7610,
      "##lıp": 7611,
      "##liğin": 7612,
      "buluyor": 7613,
      "##üsünde": 7614,
      "atlam": 7615,
      "tabe": 7616,
      "##miştir": 7617,
      "sanda": 7618,
      "yemi": 7619,
      "bilgisayarların": 7620,
      "görkem": 7621,
      "mutfaktadır": 7622,
      "etle": 7623,
      "ettir": 7624,
      "saatleri": 7625,
      "açıkça": 7626,
      "hazırlama": 7627,
      "kuşları": 7628,
      "kamyonları": 7629,
      "arabadaki": 7630,
      "raketli": 7631,
      "taşım": 7632,
      "aynasındaki": 7633,
      "kolay": 7634,
      "resimlerini": 7635,
      "kekin": 7636,
      "camlı": 7637,
      "kurt": 7638,
      "köşesine": 7639,
      "##uğunda": 7640,
      "şişir": 7641,
      "kameralı": 7642,
      "batır": 7643,
      "tembel": 7644,
      "böcek": 7645,
      "kağıtlarla": 7646,
      "şemsiyesiyle": 7647,
      "çıkartan": 7648,
      "gezi": 7649,
      "oynamayı": 7650,
      "verirler": 7651,
      "yediği": 7652,
      "havluları": 7653,
      "uçurtmanın": 7654,
      "##tere": 7655,
      "kurulan": 7656,
      "metroda": 7657,
      "düzlemde": 7658,
      "kulaklıklı": 7659,
      "çatısında": 7660,
      "dairede": 7661,
      "##cker": 7662,
      "noktasında": 7663,
      "makyajlı": 7664,
      "şeritte": 7665,
      "serpiştir": 7666,
      "dağıtıcısı": 7667,
      "çeviren": 7668,
      "çizgide": 7669,
      "dövüş": 7670,
      "tutunan": 7671,
      "gündüzleri": 7672,
      "airlin": 7673,
      "eyer": 7674,
      "karayolunun": 7675,
      "ağızda": 7676,
      "kağıdının": 7677,
      "kazanan": 7678,
      "omuzlarında": 7679,
      "hindis": 7680,
      "besleyiciden": 7681,
      "yelpazesi": 7682,
      "sembol": 7683,
      "ceylan": 7684,
      "kamuflaj": 7685,
      "obama": 7686,
      "öbür": 7687,
      "görkemli": 7688,
      "hindistan": 7689,
      "cd": 7690,
      "fir": 7691,
      "ja": 7692,
      "şaman": 7693,
      "##yanın": 7694,
      "##cası": 7695,
      "##aryen": 7696,
      "##layı": 7697,
      "##ilan": 7698,
      "##ayak": 7699,
      "##mal": 7700,
      "##ikay": 7701,
      "kayka": 7702,
      "yapra": 7703,
      "önemli": 7704,
      "##luğu": 7705,
      "trenlerin": 7706,
      "suyolu": 7707,
      "yollarda": 7708,
      "görür": 7709,
      "##ever": 7710,
      "motosikletine": 7711,
      "ediliyor": 7712,
      "ayıların": 7713,
      "##elerinin": 7714,
      "bisikletinin": 7715,
      "bisikletiyle": 7716,
      "hazırlamaya": 7717,
      "somun": 7718,
      "konusunda": 7719,
      "koyunun": 7720,
      "meydanın": 7721,
      "diğerinde": 7722,
      "ister": 7723,
      "göstermektedir": 7724,
      "parçaya": 7725,
      "camının": 7726,
      "mermi": 7727,
      "kapısını": 7728,
      "manto": 7729,
      "uzaklaş": 7730,
      "##king": 7731,
      "mote": 7732,
      "kutuplara": 7733,
      "tavana": 7734,
      "yetişen": 7735,
      "girmeye": 7736,
      "kütüğ": 7737,
      "kumandalar": 7738,
      "sayısı": 7739,
      "basan": 7740,
      "mumla": 7741,
      "sprin": 7742,
      "hilesi": 7743,
      "tasarıma": 7744,
      "standın": 7745,
      "kadehleri": 7746,
      "renktedir": 7747,
      "getiriyor": 7748,
      "meşe": 7749,
      "römorkun": 7750,
      "hasar": 7751,
      "nokt": 7752,
      "otoyolda": 7753,
      "rulosu": 7754,
      "deliği": 7755,
      "tabelalar": 7756,
      "lale": 7757,
      "eğitmen": 7758,
      "olgunlaşmamış": 7759,
      "fantezi": 7760,
      "rakip": 7761,
      "tabure": 7762,
      "düzinelerce": 7763,
      "yediriyor": 7764,
      "tekerlekleri": 7765,
      "kuyruğu": 7766,
      "konserve": 7767,
      "uğraşıyor": 7768,
      "muşamb": 7769,
      "##ceğiniz": 7770,
      "vejetaryen": 7771,
      "airlines": 7772,
      "şamandır": 7773,
      "alev": 7774,
      "huz": 7775,
      "puslu": 7776,
      "zana": 7777,
      "##ola": 7778,
      "##gram": 7779,
      "##ent": 7780,
      "##isli": 7781,
      "yanmış": 7782,
      "##diğini": 7783,
      "##eşem": 7784,
      "masalı": 7785,
      "##tedir": 7786,
      "tenisi": 7787,
      "##alığı": 7788,
      "önündedir": 7789,
      "bilgisayarına": 7790,
      "gezg": 7791,
      "üçgen": 7792,
      "fırlayan": 7793,
      "pomp": 7794,
      "##dora": 7795,
      "gide": 7796,
      "pistlere": 7797,
      "gösterge": 7798,
      "kollu": 7799,
      "yürüyorlardı": 7800,
      "brül": 7801,
      "onlarla": 7802,
      "çörekleri": 7803,
      "kuruyor": 7804,
      "bağları": 7805,
      "kabı": 7806,
      "kabın": 7807,
      "kabinin": 7808,
      "akışı": 7809,
      "jetin": 7810,
      "rampası": 7811,
      "patik": 7812,
      "paç": 7813,
      "kıyafetinde": 7814,
      "##bulans": 7815,
      "çantaya": 7816,
      "çıkarır": 7817,
      "##ington": 7818,
      "çiçeklerden": 7819,
      "bastırıyor": 7820,
      "savr": 7821,
      "pişirilmiş": 7822,
      "merdivenli": 7823,
      "bardaki": 7824,
      "dolaşıyorlar": 7825,
      "düğme": 7826,
      "yeniden": 7827,
      "savaşı": 7828,
      "taşıyordu": 7829,
      "oynamaktan": 7830,
      "ayarlar": 7831,
      "sunuluyor": 7832,
      "sabah": 7833,
      "yorgun": 7834,
      "mesafede": 7835,
      "karıştıran": 7836,
      "ambulans": 7837,
      "kucaklayan": 7838,
      "omlet": 7839,
      "airways": 7840,
      "panosu": 7841,
      "yanaştı": 7842,
      "limanına": 7843,
      "inceliyor": 7844,
      "arkadaşıyla": 7845,
      "muhteşem": 7846,
      "##geçit": 7847,
      "olağ": 7848,
      "sahibinin": 7849,
      "köpüklü": 7850,
      "parkmetre": 7851,
      "sofra": 7852,
      "alacakar": 7853,
      "bıy": 7854,
      "jetliner": 7855,
      "kruvas": 7856,
      "silindir": 7857,
      "sürecinde": 7858,
      "performans": 7859,
      "hesap": 7860,
      "washington": 7861,
      "peyza": 7862,
      "pelikan": 7863,
      "tabelanın": 7864,
      "zanaat": 7865,
      "ej": 7866,
      "ga": 7867,
      "ital": 7868,
      "ret": 7869,
      "siy": 7870,
      "sinc": 7871,
      "tuz": 7872,
      "tüf": 7873,
      "##ibe": 7874,
      "##şek": 7875,
      "birer": 7876,
      "kali": 7877,
      "##taj": 7878,
      "##isindeki": 7879,
      "##zersiz": 7880,
      "ineğe": 7881,
      "binasında": 7882,
      "kapın": 7883,
      "kapağında": 7884,
      "dost": 7885,
      "kayaklarıyla": 7886,
      "##edek": 7887,
      "telefer": 7888,
      "uçurmak": 7889,
      "saatinde": 7890,
      "tezgahlarla": 7891,
      "sokaklarında": 7892,
      "fotoğrafın": 7893,
      "zebraya": 7894,
      "şehirden": 7895,
      "tabakında": 7896,
      "kalıntı": 7897,
      "##site": 7898,
      "gününü": 7899,
      "reng": 7900,
      "arabadan": 7901,
      "eseri": 7902,
      "birbirleri": 7903,
      "##boz": 7904,
      "aşk": 7905,
      "serisi": 7906,
      "bacağı": 7907,
      "diğerinin": 7908,
      "turp": 7909,
      "krali": 7910,
      "##masıyla": 7911,
      "bahçenin": 7912,
      "kurb": 7913,
      "süsleyen": 7914,
      "lambanın": 7915,
      "sörfçüler": 7916,
      "fırınlı": 7917,
      "kütüğü": 7918,
      "ağzının": 7919,
      "yengeç": 7920,
      "##elenen": 7921,
      "araçta": 7922,
      "yalın": 7923,
      "çıkartması": 7924,
      "sıralanmış": 7925,
      "mağazasının": 7926,
      "kediyi": 7927,
      "taç": 7928,
      "taco": 7929,
      "yayalarla": 7930,
      "dağınıklığı": 7931,
      "gerge": 7932,
      "savaşıyor": 7933,
      "cihazın": 7934,
      "avluya": 7935,
      "itfaiy": 7936,
      "durdurun": 7937,
      "ulaşmak": 7938,
      "snowboardçü": 7939,
      "başkan": 7940,
      "karnında": 7941,
      "koltuğun": 7942,
      "malzemesi": 7943,
      "ateşli": 7944,
      "kelimesi": 7945,
      "gülerek": 7946,
      "kitty": 7947,
      "mezar": 7948,
      "çizgisinin": 7949,
      "kontrolörlerini": 7950,
      "dikilir": 7951,
      "fesle": 7952,
      "hastanede": 7953,
      "egzersiz": 7954,
      "höyükte": 7955,
      "bozuk": 7956,
      "öpüşen": 7957,
      "catcher": 7958,
      "şahin": 7959,
      "robot": 7960,
      "akarsu": 7961,
      "bench": 7962,
      "görebilirsiniz": 7963,
      "pijama": 7964,
      "tıb": 7965,
      "huzur": 7966,
      "alacakaranlık": 7967,
      "ejder": 7968,
      "harda": 7969,
      "hikay": 7970,
      "mi": 7971,
      "manda": 7972,
      "oli": 7973,
      "ph": 7974,
      "up": 7975,
      "öf": 7976,
      "##teri": 7977,
      "##venin": 7978,
      "birimi": 7979,
      "##lari": 7980,
      "##lerdir": 7981,
      "indi": 7982,
      "bindi": 7983,
      "karyo": 7984,
      "karşi": 7985,
      "sularında": 7986,
      "bill": 7987,
      "tarak": 7988,
      "##mıştı": 7989,
      "açıl": 7990,
      "filinin": 7991,
      "##lenme": 7992,
      "##bile": 7993,
      "takar": 7994,
      "takarak": 7995,
      "kong": 7996,
      "pisi": 7997,
      "sallamaya": 7998,
      "##book": 7999,
      "boyu": 8000,
      "##ilere": 8001,
      "boşalt": 8002,
      "suyunun": 8003,
      "ormandan": 8004,
      "kavun": 8005,
      "kavisli": 8006,
      "ağzından": 8007,
      "temizlik": 8008,
      "süit": 8009,
      "kıyafetlerle": 8010,
      "isabet": 8011,
      "yönlerde": 8012,
      "beslenir": 8013,
      "enk": 8014,
      "yastıklara": 8015,
      "raylarına": 8016,
      "maruz": 8017,
      "selam": 8018,
      "hidrantından": 8019,
      "dinlenmiş": 8020,
      "yansıma": 8021,
      "teller": 8022,
      "gelmesini": 8023,
      "pazardaki": 8024,
      "darmada": 8025,
      "vitray": 8026,
      "dayanıyordu": 8027,
      "ayağını": 8028,
      "rüzg": 8029,
      "deposu": 8030,
      "deposunda": 8031,
      "##hand": 8032,
      "tabanca": 8033,
      "serpin": 8034,
      "çubukları": 8035,
      "ketçapla": 8036,
      "yönlendiriyor": 8037,
      "terminalinde": 8038,
      "fıstığı": 8039,
      "logo": 8040,
      "şof": 8041,
      "süslemeli": 8042,
      "tepelerde": 8043,
      "şaşır": 8044,
      "masaüstündeki": 8045,
      "satıcısı": 8046,
      "çeşniler": 8047,
      "kıvrılmıştı": 8048,
      "öğrenen": 8049,
      "topluluk": 8050,
      "püskürterek": 8051,
      "yediren": 8052,
      "sky": 8053,
      "düzelt": 8054,
      "çürümüş": 8055,
      "üniversite": 8056,
      "canavar": 8057,
      "kruvasan": 8058,
      "sincap": 8059,
      "darmadağın": 8060,
      "bast": 8061,
      "davul": 8062,
      "fast": 8063,
      "reç": 8064,
      "us": 8065,
      "usta": 8066,
      "wok": 8067,
      "çün": 8068,
      "##yesi": 8069,
      "##cını": 8070,
      "##ğine": 8071,
      "##uc": 8072,
      "##akende": 8073,
      "kauç": 8074,
      "##led": 8075,
      "kadınların": 8076,
      "aygı": 8077,
      "tutma": 8078,
      "binek": 8079,
      "kardan": 8080,
      "atıl": 8081,
      "tente": 8082,
      "önde": 8083,
      "çocuklarla": 8084,
      "tarih": 8085,
      "kayakları": 8086,
      "zürafayı": 8087,
      "saatinin": 8088,
      "##elere": 8089,
      "dışı": 8090,
      "geçtiği": 8091,
      "kamyonda": 8092,
      "kullanılır": 8093,
      "##use": 8094,
      "birbirini": 8095,
      "##tici": 8096,
      "çitlerin": 8097,
      "gida": 8098,
      "diğerlerinin": 8099,
      "turku": 8100,
      "sosyal": 8101,
      "eğimi": 8102,
      "rafına": 8103,
      "uzaklaşan": 8104,
      "kamerayı": 8105,
      "çalarken": 8106,
      "bulutsuz": 8107,
      "demirbaş": 8108,
      "muay": 8109,
      "perakende": 8110,
      "yenilmek": 8111,
      "temizleme": 8112,
      "yönel": 8113,
      "##ormal": 8114,
      "sepya": 8115,
      "basmaya": 8116,
      "sepetinde": 8117,
      "sepette": 8118,
      "parkındaki": 8119,
      "merdiveni": 8120,
      "teknelerde": 8121,
      "makinesine": 8122,
      "sarmaşık": 8123,
      "kalemi": 8124,
      "dalgasında": 8125,
      "dinliyor": 8126,
      "dinlendir": 8127,
      "derg": 8128,
      "atılıyor": 8129,
      "atlamalı": 8130,
      "aracılığıyla": 8131,
      "bacaklı": 8132,
      "ekibi": 8133,
      "şapkan": 8134,
      "havuzunun": 8135,
      "kulaklarına": 8136,
      "getirmek": 8137,
      "toplandılar": 8138,
      "makyajı": 8139,
      "ışığına": 8140,
      "kulübesi": 8141,
      "kulübesinin": 8142,
      "fıski": 8143,
      "dağıtıcı": 8144,
      "kanatları": 8145,
      "sinyalleri": 8146,
      "yükselir": 8147,
      "tablaya": 8148,
      "seçen": 8149,
      "bordo": 8150,
      "trafiğin": 8151,
      "uygular": 8152,
      "kılıç": 8153,
      "günbatımında": 8154,
      "müh": 8155,
      "aptalca": 8156,
      "yuvası": 8157,
      "silüeti": 8158,
      "bluz": 8159,
      "zirv": 8160,
      "ödül": 8161,
      "aşamasında": 8162,
      "gergedan": 8163,
      "fesleğen": 8164,
      "olimp": 8165,
      "çünkü": 8166,
      "col": 8167,
      "edi": 8168,
      "olacak": 8169,
      "pul": 8170,
      "yon": 8171,
      "zen": 8172,
      "##ala": 8173,
      "##müyor": 8174,
      "##ılar": 8175,
      "##faz": 8176,
      "##ball": 8177,
      "birtak": 8178,
      "##ane": 8179,
      "##larin": 8180,
      "##und": 8181,
      "##unç": 8182,
      "otlı": 8183,
      "üzerindeyken": 8184,
      "çifte": 8185,
      "##divenin": 8186,
      "oyuna": 8187,
      "önc": 8188,
      "trey": 8189,
      "kaplumb": 8190,
      "##ello": 8191,
      "elması": 8192,
      "bilgisayarlarını": 8193,
      "gençlik": 8194,
      "açılır": 8195,
      "##lenin": 8196,
      "yerinden": 8197,
      "telefondaki": 8198,
      "giyerek": 8199,
      "ağaçtaki": 8200,
      "başıyla": 8201,
      "çiftleri": 8202,
      "fran": 8203,
      "taklit": 8204,
      "zebraların": 8205,
      "tabaklara": 8206,
      "kutuların": 8207,
      "lavabosuna": 8208,
      "kullanım": 8209,
      "kumdan": 8210,
      "kasvet": 8211,
      "sırtı": 8212,
      "##laştır": 8213,
      "yürüdük": 8214,
      "aşan": 8215,
      "yüzlerce": 8216,
      "görüntüsünü": 8217,
      "kolunun": 8218,
      "sopalı": 8219,
      "ışıklarına": 8220,
      "çörekte": 8221,
      "mangal": 8222,
      "ormanı": 8223,
      "aksan": 8224,
      "mahfaz": 8225,
      "palet": 8226,
      "dönem": 8227,
      "tanım": 8228,
      "koşmaya": 8229,
      "ispan": 8230,
      "farenin": 8231,
      "bilek": 8232,
      "masasıyla": 8233,
      "gıdaların": 8234,
      "plakta": 8235,
      "şehr": 8236,
      "tenceresi": 8237,
      "ayakkabısı": 8238,
      "dalgası": 8239,
      "maçta": 8240,
      "ürper": 8241,
      "hale": 8242,
      "ayrılır": 8243,
      "akşamları": 8244,
      "havuzu": 8245,
      "garında": 8246,
      "avlusunda": 8247,
      "çatıya": 8248,
      "saksısı": 8249,
      "korkunç": 8250,
      "geçirir": 8251,
      "torbaları": 8252,
      "bölümü": 8253,
      "kaleci": 8254,
      "surat": 8255,
      "katılıyor": 8256,
      "askıya": 8257,
      "sürükleyen": 8258,
      "born": 8259,
      "gurur": 8260,
      "apartmanın": 8261,
      "fabrika": 8262,
      "tabanına": 8263,
      "okumak": 8264,
      "krispy": 8265,
      "zamanda": 8266,
      "mimari": 8267,
      "fişek": 8268,
      "pratik": 8269,
      "backhand": 8270,
      "##tapot": 8271,
      "laborat": 8272,
      "kauçuk": 8273,
      "muayene": 8274,
      "birtakım": 8275,
      "cı": 8276,
      "clo": 8277,
      "fl": 8278,
      "fuar": 8279,
      "hur": 8280,
      "normal": 8281,
      "ulu": 8282,
      "yedek": 8283,
      "##oru": 8284,
      "##tiğini": 8285,
      "##ıtır": 8286,
      "##sundan": 8287,
      "##fe": 8288,
      "##enk": 8289,
      "##lanarak": 8290,
      "##ral": 8291,
      "yanıyor": 8292,
      "binip": 8293,
      "arma": 8294,
      "sahanın": 8295,
      "suları": 8296,
      "topra": 8297,
      "köpeklerle": 8298,
      "doğu": 8299,
      "bakın": 8300,
      "işaretinde": 8301,
      "ağacından": 8302,
      "ahtapot": 8303,
      "yemeklerini": 8304,
      "erkeği": 8305,
      "başları": 8306,
      "takılan": 8307,
      "geçici": 8308,
      "##leyi": 8309,
      "güney": 8310,
      "uçurtmaya": 8311,
      "##içi": 8312,
      "kullanmaya": 8313,
      "resimlerle": 8314,
      "bakıyorlardı": 8315,
      "asar": 8316,
      "bitmemiş": 8317,
      "eşsiz": 8318,
      "madal": 8319,
      "aksiyon": 8320,
      "patron": 8321,
      "pervaz": 8322,
      "mahkemenin": 8323,
      "görüntüleyen": 8324,
      "dönük": 8325,
      "frisbees": 8326,
      "temizleyen": 8327,
      "kullanıyordu": 8328,
      "düşmüş": 8329,
      "savana": 8330,
      "raylarının": 8331,
      "metin": 8332,
      "pişirilen": 8333,
      "klavyesine": 8334,
      "marin": 8335,
      "gövdeli": 8336,
      "merkezde": 8337,
      "yansıyan": 8338,
      "satırı": 8339,
      "grafik": 8340,
      "otelin": 8341,
      "nota": 8342,
      "tırnak": 8343,
      "bacaklarını": 8344,
      "ticaret": 8345,
      "yayıldı": 8346,
      "oynama": 8347,
      "şekerleme": 8348,
      "deposunun": 8349,
      "hoşlanan": 8350,
      "yıkılmış": 8351,
      "torbaya": 8352,
      "uzatan": 8353,
      "##landıran": 8354,
      "şekillendir": 8355,
      "havalimanındaki": 8356,
      "kesişen": 8357,
      "güvercinler": 8358,
      "sayfada": 8359,
      "ingiltere": 8360,
      "dövme": 8361,
      "katılan": 8362,
      "log": 8363,
      "##dikçe": 8364,
      "aksesuarları": 8365,
      "fırlatır": 8366,
      "zebras": 8367,
      "kaputunda": 8368,
      "dinlenirken": 8369,
      "gerçekleştiren": 8370,
      "safari": 8371,
      "horoz": 8372,
      "sıralanır": 8373,
      "kombinasyonu": 8374,
      "filosu": 8375,
      "ciddi": 8376,
      "liderlik": 8377,
      "şimdi": 8378,
      "fikstür": 8379,
      "slayt": 8380,
      "turkuaz": 8381,
      "10": 8382,
      "iten": 8383,
      "mis": 8384,
      "sw": 8385,
      "sari": 8386,
      "##diler": 8387,
      "##furt": 8388,
      "otta": 8389,
      "##landa": 8390,
      "##este": 8391,
      "oyulmuş": 8392,
      "kayarken": 8393,
      "kişiden": 8394,
      "büyüklükte": 8395,
      "binmeyi": 8396,
      "arar": 8397,
      "##epsiyon": 8398,
      "kırmızıdır": 8399,
      "sanayi": 8400,
      "banyoyu": 8401,
      "##lüğü": 8402,
      "resepsiyon": 8403,
      "dizildi": 8404,
      "##ady": 8405,
      "ağaçlarıyla": 8406,
      "buketi": 8407,
      "fırlıyor": 8408,
      "teknolo": 8409,
      "kasedeki": 8410,
      "çalılarla": 8411,
      "kesti": 8412,
      "yürüyerek": 8413,
      "resimi": 8414,
      "resimlerin": 8415,
      "hazırlandı": 8416,
      "kekinin": 8417,
      "yatay": 8418,
      "sopaya": 8419,
      "boşta": 8420,
      "şeylerin": 8421,
      "köşeyi": 8422,
      "dolduran": 8423,
      "şişenin": 8424,
      "ormana": 8425,
      "bağboz": 8426,
      "dışındadır": 8427,
      "tavasında": 8428,
      "kafalı": 8429,
      "mahz": 8430,
      "gömlekle": 8431,
      "muam": 8432,
      "çıkarmaya": 8433,
      "panora": 8434,
      "basar": 8435,
      "kalemler": 8436,
      "direklerini": 8437,
      "sığırlar": 8438,
      "yansımasını": 8439,
      "stant": 8440,
      "donutsun": 8441,
      "gereç": 8442,
      "kentte": 8443,
      "savaşan": 8444,
      "yüzücü": 8445,
      "yığıldı": 8446,
      "yemeğine": 8447,
      "engeli": 8448,
      "etiketleri": 8449,
      "ekranını": 8450,
      "dönüşt": 8451,
      "kapatıyor": 8452,
      "yorganın": 8453,
      "gülümsüyordu": 8454,
      "unu": 8455,
      "kavanozu": 8456,
      "ardına": 8457,
      "amerikalı": 8458,
      "yönlendirir": 8459,
      "ayrıca": 8460,
      "ikram": 8461,
      "mıknatıslar": 8462,
      "açısı": 8463,
      "şovunda": 8464,
      "harflerle": 8465,
      "yapılmamış": 8466,
      "kristal": 8467,
      "cebinde": 8468,
      "zımp": 8469,
      "somon": 8470,
      "kafatası": 8471,
      "##iliğinden": 8472,
      "kablolu": 8473,
      "papatya": 8474,
      "atöly": 8475,
      "zengin": 8476,
      "bornoz": 8477,
      "dede": 8478,
      "jo": 8479,
      "liner": 8480,
      "mil": 8481,
      "nih": 8482,
      "reh": 8483,
      "çen": 8484,
      "##lileri": 8485,
      "##masının": 8486,
      "##şun": 8487,
      "##fu": 8488,
      "##latan": 8489,
      "durmaktadır": 8490,
      "##ones": 8491,
      "##üyü": 8492,
      "varmış": 8493,
      "tabağına": 8494,
      "trendeki": 8495,
      "bildir": 8496,
      "bakışı": 8497,
      "aldı": 8498,
      "kayaklarını": 8499,
      "otobüslerle": 8500,
      "havalarda": 8501,
      "etler": 8502,
      "tuvaletinde": 8503,
      "filme": 8504,
      "zürafaya": 8505,
      "tezgahların": 8506,
      "tezgahına": 8507,
      "motosikletini": 8508,
      "tepki": 8509,
      "##elerine": 8510,
      "##tılı": 8511,
      "geçmeye": 8512,
      "kanop": 8513,
      "teknesinde": 8514,
      "dalma": 8515,
      "kutularda": 8516,
      "çeşmenin": 8517,
      "oyuncakları": 8518,
      "kesin": 8519,
      "çitler": 8520,
      "koc": 8521,
      "çalıştıran": 8522,
      "badem": 8523,
      "makası": 8524,
      "boyası": 8525,
      "yiyorlar": 8526,
      "verilen": 8527,
      "bekçi": 8528,
      "portak": 8529,
      "bahçedeki": 8530,
      "kurşun": 8531,
      "duşun": 8532,
      "kavşağının": 8533,
      "makaslı": 8534,
      "devlet": 8535,
      "patatesler": 8536,
      "fırçalama": 8537,
      "üniform": 8538,
      "baseb": 8539,
      "besler": 8540,
      "hidrantında": 8541,
      "denizci": 8542,
      "otomobillerin": 8543,
      "kendisinin": 8544,
      "türlü": 8545,
      "tişörtte": 8546,
      "ayarlanmış": 8547,
      "römorkör": 8548,
      "ışığın": 8549,
      "hünerini": 8550,
      "öğelerin": 8551,
      "yıkayıcı": 8552,
      "fıçı": 8553,
      "##landırma": 8554,
      "serpilmiş": 8555,
      "##yatör": 8556,
      "##yatro": 8557,
      "kızartmalar": 8558,
      "kabarcık": 8559,
      "konsol": 8560,
      "tabağındaki": 8561,
      "duydum": 8562,
      "geçmişine": 8563,
      "çıkartmalarla": 8564,
      "gönderilir": 8565,
      "çorbanın": 8566,
      "uygulama": 8567,
      "setinin": 8568,
      "gizli": 8569,
      "sınırı": 8570,
      "skiis": 8571,
      "konteyner": 8572,
      "tropikal": 8573,
      "memurları": 8574,
      "viraj": 8575,
      "aydınlatılıyor": 8576,
      "gömleğindeki": 8577,
      "eritilmiş": 8578,
      "greyfurt": 8579,
      "birçoğu": 8580,
      "kurtarma": 8581,
      "brülör": 8582,
      "peyzaj": 8583,
      "hardalı": 8584,
      "öfk": 8585,
      "kasvetli": 8586,
      "bağbozumu": 8587,
      "zımpara": 8588,
      "char": 8589,
      "flam": 8590,
      "goo": 8591,
      "haş": 8592,
      "je": 8593,
      "kakt": 8594,
      "lü": 8595,
      "neş": 8596,
      "red": 8597,
      "ste": 8598,
      "vat": 8599,
      "çir": 8600,
      "##gah": 8601,
      "##mesinin": 8602,
      "##kar": 8603,
      "##zar": 8604,
      "##iri": 8605,
      "##arın": 8606,
      "##tain": 8607,
      "yanlı": 8608,
      "durmaya": 8609,
      "##aği": 8610,
      "##ator": 8611,
      "ayg": 8612,
      "binayla": 8613,
      "atkı": 8614,
      "masadan": 8615,
      "treninde": 8616,
      "kapüş": 8617,
      "işçisi": 8618,
      "kaykota": 8619,
      "##yonun": 8620,
      "havz": 8621,
      "toping": 8622,
      "köpeklerin": 8623,
      "sanatı": 8624,
      "banyodan": 8625,
      "zürafası": 8626,
      "tekli": 8627,
      "saatte": 8628,
      "saatlerinde": 8629,
      "yerli": 8630,
      "ağaçlarda": 8631,
      "##bilecek": 8632,
      "kanalı": 8633,
      "kasesinde": 8634,
      "sırayla": 8635,
      "sandviçli": 8636,
      "pisuvar": 8637,
      "gidi": 8638,
      "resimlenmiştir": 8639,
      "kirin": 8640,
      "dalgalarına": 8641,
      "boyuyor": 8642,
      "anal": 8643,
      "bebekle": 8644,
      "çevrelenmiş": 8645,
      "istasyondan": 8646,
      "##tesine": 8647,
      "dala": 8648,
      "##uğunun": 8649,
      "şişme": 8650,
      "koyda": 8651,
      "ayaklarına": 8652,
      "yenilmeye": 8653,
      "kavşağa": 8654,
      "yağmurluk": 8655,
      "sepetinin": 8656,
      "limanı": 8657,
      "hareketi": 8658,
      "manzarasını": 8659,
      "iniyorlar": 8660,
      "konuşuyordu": 8661,
      "sandalyelere": 8662,
      "kısmını": 8663,
      "saray": 8664,
      "dalgayla": 8665,
      "tatlılarla": 8666,
      "gövdeleri": 8667,
      "istasyonundaki": 8668,
      "geminin": 8669,
      "##liyet": 8670,
      "hali": 8671,
      "kendilerini": 8672,
      "kendiliğinden": 8673,
      "sürat": 8674,
      "gölgeler": 8675,
      "darbe": 8676,
      "##urubu": 8677,
      "sıkışık": 8678,
      "özürlü": 8679,
      "gazlı": 8680,
      "görünüşlü": 8681,
      "yapısı": 8682,
      "meyvelerden": 8683,
      "muhafazadaki": 8684,
      "mekiği": 8685,
      "berber": 8686,
      "garaja": 8687,
      "karıştırıyor": 8688,
      "kaçır": 8689,
      "kaçıyor": 8690,
      "atıcıya": 8691,
      "balonu": 8692,
      "tipik": 8693,
      "imaj": 8694,
      "bükülen": 8695,
      "emz": 8696,
      "menü": 8697,
      "omzuna": 8698,
      "dekorasyonu": 8699,
      "biçimde": 8700,
      "kütüphane": 8701,
      "brown": 8702,
      "alkollü": 8703,
      "radyatör": 8704,
      "pozisyonda": 8705,
      "metrop": 8706,
      "##liğe": 8707,
      "görüyoruz": 8708,
      "havalimanının": 8709,
      "tekerleği": 8710,
      "ihtiya": 8711,
      "merakla": 8712,
      "boşaltma": 8713,
      "gidiş": 8714,
      "boks": 8715,
      "##andışı": 8716,
      "diyen": 8717,
      "büyümüş": 8718,
      "böylece": 8719,
      "aromalı": 8720,
      "sprink": 8721,
      "gezgin": 8722,
      "olağandışı": 8723,
      "teleferik": 8724,
      "armatür": 8725,
      "muamele": 8726,
      "nihai": 8727,
      "flaming": 8728,
      "çirkin": 8729,
      "ace": 8730,
      "his": 8731,
      "ilet": 8732,
      "kli": 8733,
      "lis": 8734,
      "mol": 8735,
      "rv": 8736,
      "tok": 8737,
      "yula": 8738,
      "şur": 8739,
      "şant": 8740,
      "şurubu": 8741,
      "##th": 8742,
      "##mür": 8743,
      "##uma": 8744,
      "##50": 8745,
      "##day": 8746,
      "##istik": 8747,
      "yalayan": 8748,
      "##etti": 8749,
      "##emo": 8750,
      "uçmaya": 8751,
      "##aba": 8752,
      "üstgeçit": 8753,
      "kırp": 8754,
      "sualt": 8755,
      "mutfağının": 8756,
      "uçurur": 8757,
      "tuvaletinin": 8758,
      "görünüme": 8759,
      "başarı": 8760,
      "uçaklara": 8761,
      "bisikletteki": 8762,
      "geçtik": 8763,
      "tabaklarıyla": 8764,
      "kumta": 8765,
      "eser": 8766,
      "sandviçini": 8767,
      "muzları": 8768,
      "muzdan": 8769,
      "doğran": 8770,
      "ineklerle": 8771,
      "yüze": 8772,
      "yürüyün": 8773,
      "diğerine": 8774,
      "dalgalanıyor": 8775,
      "soslar": 8776,
      "sosla": 8777,
      "yürüyordu": 8778,
      "çevrede": 8779,
      "çevredeki": 8780,
      "yüklenir": 8781,
      "onlardan": 8782,
      "yakalarken": 8783,
      "şeylerle": 8784,
      "döken": 8785,
      "şekli": 8786,
      "levhasına": 8787,
      "tavası": 8788,
      "harita": 8789,
      "demirledi": 8790,
      "kumandasını": 8791,
      "sayacında": 8792,
      "örtülmüş": 8793,
      "seviy": 8794,
      "çarpış": 8795,
      "benekli": 8796,
      "sergiler": 8797,
      "bastıran": 8798,
      "kıyısına": 8799,
      "atıyorlar": 8800,
      "saklanıyor": 8801,
      "sıralanan": 8802,
      "ayakkabıların": 8803,
      "muhafazası": 8804,
      "tomur": 8805,
      "boyama": 8806,
      "program": 8807,
      "denetleyicisini": 8808,
      "kreme": 8809,
      "ürünü": 8810,
      "gemiye": 8811,
      "heykelleri": 8812,
      "bağlıdır": 8813,
      "pakette": 8814,
      "kalkan": 8815,
      "standda": 8816,
      "ulaşım": 8817,
      "kostümü": 8818,
      "rüzgarlı": 8819,
      "dişlisi": 8820,
      "##ücük": 8821,
      "fırçayla": 8822,
      "binicileri": 8823,
      "turşusu": 8824,
      "samanın": 8825,
      "çiçeğin": 8826,
      "püskürten": 8827,
      "püskürtü": 8828,
      "kanepelerde": 8829,
      "çevirir": 8830,
      "kucaklıyor": 8831,
      "direğinde": 8832,
      "terminalde": 8833,
      "cipsli": 8834,
      "çömeldi": 8835,
      "seçim": 8836,
      "örtüsünün": 8837,
      "bağlantılı": 8838,
      "toplantıda": 8839,
      "deliğinden": 8840,
      "çekilirken": 8841,
      "değiştirilmiş": 8842,
      "olayı": 8843,
      "mahallede": 8844,
      "öğreten": 8845,
      "göğsüne": 8846,
      "yenilecek": 8847,
      "tiyatro": 8848,
      "gecede": 8849,
      "podyumda": 8850,
      "frizbee": 8851,
      "aydınlatması": 8852,
      "tehlikeli": 8853,
      "tulum": 8854,
      "surfboard": 8855,
      "geçidinde": 8856,
      "enerji": 8857,
      "rendelenmiş": 8858,
      "ahududu": 8859,
      "kaplumbağa": 8860,
      "kaktüs": 8861,
      "analog": 8862,
      "flamingo": 8863,
      "yulaf": 8864,
      "basa": 8865,
      "funda": 8866,
      "gn": 8867,
      "mc": 8868,
      "tw": 8869,
      "tap": 8870,
      "tim": 8871,
      "vol": 8872,
      "yı": 8873,
      "ötesine": 8874,
      "##mumu": 8875,
      "##siye": 8876,
      "##sika": 8877,
      "##ue": 8878,
      "##talı": 8879,
      "adamdan": 8880,
      "##ema": 8881,
      "kişiler": 8882,
      "aylarında": 8883,
      "atlay": 8884,
      "atılır": 8885,
      "kömür": 8886,
      "yapın": 8887,
      "sokuyor": 8888,
      "açın": 8889,
      "etme": 8890,
      "yeşili": 8891,
      "yeşiller": 8892,
      "erken": 8893,
      "yerin": 8894,
      "sürülerek": 8895,
      "bugün": 8896,
      "uçakların": 8897,
      "geçmektedir": 8898,
      "tabakla": 8899,
      "tabakalı": 8900,
      "kuşkon": 8901,
      "günlüğ": 8902,
      "kamyonunda": 8903,
      "oynuyordu": 8904,
      "yiyeceklerini": 8905,
      "inekleri": 8906,
      "kira": 8907,
      "pistleri": 8908,
      "##ümüz": 8909,
      "meyveli": 8910,
      "kekini": 8911,
      "çanakta": 8912,
      "bebekler": 8913,
      "çevreliyor": 8914,
      "bardağa": 8915,
      "elbisesinin": 8916,
      "plaza": 8917,
      "vurgu": 8918,
      "merdivenin": 8919,
      "kapısından": 8920,
      "rafların": 8921,
      "şişeden": 8922,
      "şişelenmiş": 8923,
      "koymak": 8924,
      "tavus": 8925,
      "yazıyordu": 8926,
      "demirli": 8927,
      "bölü": 8928,
      "##atıcı": 8929,
      "koşarken": 8930,
      "geçiyorlar": 8931,
      "otomatik": 8932,
      "pansiyon": 8933,
      "yarışmasında": 8934,
      "tabloların": 8935,
      "##üldü": 8936,
      "giyiyorlar": 8937,
      "##badem": 8938,
      "aletlerin": 8939,
      "tom": 8940,
      "tofu": 8941,
      "battaniyeler": 8942,
      "tasmalı": 8943,
      "düzenlemesi": 8944,
      "maçına": 8945,
      "tellerin": 8946,
      "hidrantıyla": 8947,
      "kazaklı": 8948,
      "balmumu": 8949,
      "topraklarda": 8950,
      "türki": 8951,
      "otlaklarda": 8952,
      "dökülüyor": 8953,
      "bayraklı": 8954,
      "sıkışan": 8955,
      "gülün": 8956,
      "sopalarla": 8957,
      "sabır": 8958,
      "meksika": 8959,
      "tavanlı": 8960,
      "söyler": 8961,
      "başkasının": 8962,
      "korkulukta": 8963,
      "yerleşti": 8964,
      "kulağında": 8965,
      "gözlemc": 8966,
      "gözlemliyor": 8967,
      "burnuna": 8968,
      "ortasına": 8969,
      "dükkânın": 8970,
      "dövmeli": 8971,
      "gerekiyor": 8972,
      "savuruyordu": 8973,
      "örtüsüne": 8974,
      "hayatı": 8975,
      "maskeli": 8976,
      "borunun": 8977,
      "gezinirler": 8978,
      "voleybola": 8979,
      "birikintisinde": 8980,
      "atletik": 8981,
      "skate": 8982,
      "softball": 8983,
      "kılıfı": 8984,
      "herkesin": 8985,
      "sunulan": 8986,
      "yarasayı": 8987,
      "hintli": 8988,
      "lastiğ": 8989,
      "acıbadem": 8990,
      "savunma": 8991,
      "özgür": 8992,
      "şamandıra": 8993,
      "italyan": 8994,
      "baston": 8995,
      "##zarella": 8996,
      "dun": 8997,
      "fede": 8998,
      "keş": 8999,
      "nö": 9000,
      "pad": 9001,
      "wo": 9002,
      "win": 9003,
      "zaf": 9004,
      "##linin": 9005,
      "##lilik": 9006,
      "##gulu": 9007,
      "##tarı": 9008,
      "##tüğü": 9009,
      "##mik": 9010,
      "##mıyor": 9011,
      "##ks": 9012,
      "##cağını": 9013,
      "##hu": 9014,
      "##batı": 9015,
      "birleştir": 9016,
      "##ake": 9017,
      "##larca": 9018,
[...]
